boyfriend
liar
##athing
emissions
##″
ska
##gee
khan
이전
image
curiosity
yelled
dysfunction
2400
thorpe
심전도
integrity
##llins
산본
billion
decca
midlands
ninety
##ken
paths
malaya
황금비
playable
용의자
shuddered
generators
[unused861]
##uze
##lid
averaged
##genesis
CI
ambitious
소냐
duncan
신유
extras
##∈
χ
conditioning
발길
ravaged
[unused992]
syndicated
##anga
neat
steele
avila
fresno
##mism
[unused392]
mustang
네
martina
국민의례
알선
[unused176]
##ed
65
[unused406]
[unused896]
distraction
變宮
indicted
베르크
공사장
대량
memorandum
term
ernie
starving
・
망간
412
물론
켓에
ム
76
invoked
선유도
[unused769]
calcutta
##sbury
종정
empathy
상응
오패부
favored
shareholders
coven
와인
정조
송파구
##ʸ
bulletin
##pheus
##person
areas
lviv
adaptation
married
##rock
disagreed
王儉
romano
tendency
##vas
##ᅡ
overtime
insisted
battista
운지
지겹
##taken
수선
nightfall
##ま
년대
google
lark
영남권
며칠
ʋ
karen
plastics
indirect
##edging
조소앙
RMS
[unused838]
##obe
홑
연속형
orderly
京
Juliet
ridges
rodney
titanic
crossroads
TTTTTTTT
big
##logie
1880s
윌리엄
wharf
보좌관
afc
KD
##gb
##hem
inquisition
mighty
flickered
##ede
벨라루스이
혜성
존
주식회사
전형적
compound
##–
스미스
περμετρον
shiny
[unused302]
Kaya
엘리스
고되
¾
ₘ
##28
동부여
나타
##icz
themselves
mentally
galician
전축
martyrs
##ظ
907
##ffy
aj
##weight
##mun
오펜하이머
상당히
실업자
波動方程式
の
inaugurated
absorption
compiled
계승
로동
투데이
iconic
예방
공짜
tariffs
연합
69
415
bukit
##hita
##武
netherlands
་
인류
1970s
ceramics
nokia
토건
有
stolen
##‰
보호대
##đ
도쿄도
roasted
belief
eighties
Esther
1964
집
nineteen
최악
햇볕
변형
가볍
마굴리스
행정력
##gn
Massachusetts
bathroom
donnie
ª
carson
의원
궤도
indicative
affluent
색인
enraged
##em
후에
governorate
내뿜
권위주의적
marianne
궁지
적색
##ag
regional
자식
grading
fragile
montane
games
##itude
pavement
outpost
highlighting
##mies
도무지
emory
outsiders
[unused88]
fifty
reflection
잇달
328
muller
sprint
finnish
##fish
cards
도네츠
인명
arenas
truncated
aggregate
shutting
신봉
seeming
translate
그대
1635
모던
disrepair
##rdy
sun
tightly
소립자
scheduled
밀려나
##ξ
해명
shows
폐경
##piece
bets
tis
##boys
junctions
float
ascribed
##lter
##kur
ward
favorably
캠
##scent
##tein
transmitters
회전체
##ch
SiO
성행위
governing
redistribution
sorrow
문인화
중순
simi
phase
2000s
이렇
ㄴ들
damage
###
##gement
결방
squid
dolly
illustrating
entering
utilities
respectful
mug
material
lawn
expressing
불매
##etic
onion
center
winning
newcomers
rs
신속
Heinrich
부연
proposing
sequences
occult
암살
달성
maids
양념
identity
ㅂ
여
ি
史
처리
convincing
색가둠
Trkiye
maple
modernized
강삭
nominate
banker
traverse
항소심
hired
공고하
useful
dating
proximity
##lage
괄목
흑토
걸림돌
inducted
##hedron
microscopy
문책
한문
dominant
개신교
suffrage
lee
ceramic
doses
ㄴ다면
curses
2009
safety
fairies
1742
리서치뷰
shetland
섞이
모티콘
devoted
직할시
60s
culturally
##lr
attain
un
##psis
##つ
바람직하
adolph
equipment
##anta
means
981
Yava
애국지사
세실
CH
쌍
entrepreneurs
mood
##gam
##phones
colliery
automobiles
##xon
곱산술
matilda
점토
condoms
적당하
##its
##ज
양인성
출현
quo
stepped
wei
公式
rampage
sanford
olive
stroked
andersson
spots
retreating
노무현
wheel
##quest
##xley
aerospace
입말
자발
÷
mingled
monkey
jasmine
rico
malley
crashing
receptor
ʳ
았었
209
상세히
♦
1865
##rte
legislatures
woods
禾
invited
moniker
낱말
hat
mv
asher
mitchell
postal
상임
윌
chile
근로
lowered
##lde
reproductive
##lo
compete
furniture
애쓰
행렬적
##kat
春秋戰國時代
##worth
onto
distracted
성인
nwa
[unused561]
패배
prove
응답자
chair
mattress
thirsty
angle
도산
임의
meaning
charges
impulse
achieve
jingle
해군
lap
aa
리
##lb
stands
academics
##ी
위배
명시
중간
##chner
북량
艹
서간
vice
authorities
하와이
landowners
ached
becca
크라우드
지지층
pork
catalyst
1604
박탈
convenient
##trum
단지
포기
불합리
##寺
에바
addressed
##ctable
##isance
F
fell
마키나
거울
숭정제
106
##vez
##彳
comrade
abdomen
stripes
꼽
tunes
judges
sonia
papyrus
hillside
로그
michele
김영삼
reynolds
수입
sh
##iche
vt
입문기
antibodies
##iri
조사자
간명하
##oned
uber
KGB
Myers
[unused61]
만유인력
유희
농작물
동상
##anian
sphinx
살펴보
becker
사당역
##،
healer
[unused0]
mimic
bernie
환경부
shaped
크로네커
Seoul
비국
digger
ᄒ
proprietor
mated
smashwords
asian
##mere
##lism
minorities
posse
homecoming
quasi
##ori
숭실중학교
heather
militias
미술
냐
##glia
poultry
plymouth
벽
wade
heats
spokesperson
wits
female
전
scanner
자치부
spitfire
ვ
정당성
gazes
떠나
locate
carrier
rio
마리아
##aurus
##≈
bulldogs
ᄋ
apparent
cincinnati
raced
reza
bamboo
tangle
attache
lc
ㅒ
##و
오존층
interviews
짝
개량
proceed
##inal
jasper
nerves
naturalized
목조
부처님
esq
serie
arrogance
filmfare
1984
middleton
직립
정치
tunis
debuting
404
lease
handling
##ocating
awards
rarely
##cat
##hang
takeoff
논증
南齊
한
zhu
bane
온순하
foil
nazi
aeronautics
##ก
##akes
1570
정작
##aves
hurry
noisy
[unused282]
laughs
ragged
spears
loading
profiles
receive
storey
somber
허락
francais
대청리
601
날
글짓기
##uld
##26
하역
peterson
tun
chances
1922
subunit
유람선
계가
contains
မ
volcanoes
1904
mysteriously
##inating
decrease
[unused799]
1768
막대
meant
소수자
existed
yao
훌쩍
tremor
anzac
구천
[unused893]
guided
慶州
cocoa
##kyu
sovereign
valkyrie
皇
편집
불규칙성
changing
munitions
siren
pga
kathleen
nh
같
##nology
dem
##jin
중엽
##inator
패러디
started
malicious
bulls
ambrose
rann
帝國
1733
serb
##rnier
deadline
뮌헨
57th
horst
유한
delilah
amazon
환
밀리
suspects
##stered
질문서
##etano
treaties
southwest
강조
introduces
형성
barrington
승하차
sebastian
tested
melville
nationwide
rounds
##enbach
동영상
devotees
각지
심부름
formally
北齊
##ffen
asiatic
ahead
employers
각종
##icing
holloway
##lord
investigate
브라의
control
##ura
비단길
유프라테스
leary
꼭대기
exploits
gateway
galilee
국회의원
[unused952]
전방
시점
관성텐서
embracing
juan
##lberg
amateurs
obama
legitimate
overdose
##ivar
##gley
애드워즈
Shell
교전
개화
양보
633
##yin
쏘울
304
클럽
turrets
telecommunication
grains
pubs
##movable
assyrian
방점
이을학
##rmi
재적
boulder
시설
describes
м
trophies
##ties
optimal
kilda
respiratory
##press
থ
야곱
##oche
frankenstein
wooden
harbor
##道
오마
926
boyer
rudder
seventies
underwater
##pants
[unused155]
consolidated
serge
##osh
218
abroad
mainly
발하
devin
남초
복잡
quarterly
pursued
##shing
ginger
龍
##wine
겐츨레르비르
deleted
interesting
##ingdon
[unused251]
콜택시
실업계
furnace
dexter
pounds
퇴적
lakers
##kos
cole
현대사
producers
사뤼스
fauna
##torium
etienne
小川太郞
닿소리
tugged
##ating
interception
ワ
##tta
산맥
crushing
categorized
초점
##tura
##iman
insisting
comparatively
##ウ
해양학
mondays
분단국가
알론조
nico
김형욱
진화
그때
1300
maintaining
drown
cords
wealthiest
rewards
편제
ガ
abdominal
##notes
arrondissement
ˤ
bert
풀무
lyrics
##tine
lame
##inium
cough
##キ
learns
stiff
예전
참마죽
cheering
peripheral
中華民國
bumped
##uded
hitch
subterranean
##lts
생생하
달리
calmed
##rial
wrestling
가우시안
retro
landowner
##mobile
township
##sume
효율
repeating
solids
219
humor
lonely
Daniel
##med
전범
##xin
받침점
upstream
##tte
advice
부틀
##lusion
defenses
체제
colored
충칭
dil
transvaal
sutton
민청학련
##ucible
gangster
포괄
클라우스
practicing
feminist
addicted
candidacy
racetrack
950
##⊆
주말
##四
\
1000
田
notes
universal
errors
congressional
portuguese
thermal
모시
interviewed
경량
기근
lena
다행히
minnie
접근성
事
flexibility
##−1
에게
##আ
곱집합
악곡
직감
사승
herman
유례없
수탈
421
전기장
ग
싸우
choked
rutherford
stills
mcgraw
지하
laughter
enjoying
jocelyn
[unused233]
florence
칠
Paranormal
curated
accelerated
공사
mfa
wandering
의견
umpire
ku
삼각지
습득
fried
전국지
##chu
지침
NASA
anita
estimated
devoid
temperatures
삼촌
slot
musa
미만
close
194
candi
ᴺ
selected
problems
격자
운동당
today
峨山
객외
유리병
[unused794]
got
기적
aerodrome
gail
대답
hazy
다중
throw
cancers
##ess
1859
processors
##ɯ
1735
첨단
prayers
어플리케이션
brandy
극단
통일장
kerr
文學
benton
masculine
parrot
wealth
crucial
exiting
중
프링스하임
syllables
Kad
##rar
grip
compute
##mation
farther
த
inhabitants
##koff
slope
expecting
dialogue
##ilised
facebook
optimism
louisville
노벨상
sedan
발기인
bromley
납치
관리자
Gttingen
quality
paramilitary
공기업
청중
[unused467]
제프리
bjp
청자
##zman
helix
##tched
1715
##sau
조르
석탄
Чебышёв
caucasian
abnormal
profile
##thus
playhouse
slab
배수진
lp
송현
ineffective
traction
twice
clear
아랍
여야
ljubljana
##া
주의자
⁷
저축
j
품종
consumer
육
치
gm
worthless
wesley
겨드랑이
russell
antony
editing
대사
ind
vote
216
participation
##比
holidays
##roller
af
foxes
병행
planet
rape
##♥
bowed
##placed
dali
안와르
carver
물성
중급
lauren
bowling
assemble
creep
벽지
테러
tc
시사
beyonce
bitter
철광
publicly
cnn
want
힘
독식
동대문시장
kimball
synthetic
theta
교체
[unused447]
benoit
bureau
accountant
##nath
assignment
pere
winslow
religion
입법권
overcame
burlington
장식
medallist
##sol
창조설
향찰
future
flutes
definite
ritter
escorting
##mb
strategies
groom
level
injected
둘
감명
secretive
commemorates
14th
kingsley
배우자
요새
##mps
hasan
convey
시침
landing
differentiate
##gnon
า
어
basket
##raine
crossing
력
##gni
peat
편지
amnesty
불완전
법제처
guys
staffed
반란
disgusting
mommy
fukuoka
SARS
입원
alla
alpine
corey
infected
sunk
##tock
volcanic
spokane
administration
oslo
##ired
ェ
job
numbered
paperback
##ɕ
해방적
interrupt
EEEEEE
##ح
evaluated
##dez
nebula
요셉
Investigation
##media
theorists
[unused466]
garbage
개막
alma
빈번하
cheating
1821
messengers
현전
adjutant
차갑
renaissance
boxers
구들장
demonstrators
터미널
tax
senator
disturbances
##trix
administrators
porsche
999
##hoff
##sic
적응
##eries
parcels
영광
소화
하이젠베르크
외형적
walnut
txt
jakob
confederation
##bots
nba
scraping
prairie
accounting
lineup
symbolic
burnley
humane
stubble
야나기
살균
waller
blog
가속화
지엽적
adams
Collatz
[unused762]
연장선
torres
widow
investigated
polling
보유
후조
fog
private
ambition
resulting
318
reset
bulb
일리
[unused358]
세분
revisited
므로
스캐너
[unused216]
nhs
판매
darted
voivodeship
rosenthal
supplementary
induced
관련성
##bri
touch
루리아
[unused872]
rubbing
biochemistry
Fundamental
enabling
hassan
Gruppa
forearms
ь
복흥상회
##忄
baron
fellows
##hdi
₆
existing
matters
아무
전형
##ツ
한국노동조합총연맹
대대급
herb
사태
however
somethin
anton
performers
##ζ
만년
suite
판타지
합의서
trailed
shouting
##rrell
benches
뚝섬
loneliness
서투르
percent
rr
살피
ch
춥
##rion
reorganization
##not
1793
warmed
폭락
undo
attracts
자랑
비평형
수공업
modern
waltz
정음청
二
1790
cisco
우주선
fracture
ト
vowed
whereby
개정판
##inen
세계적
fled
cartoon
medallion
어문
gibbons
##ว
##mare
designate
organised
dundee
baroness
瓣
##isson
##bo
pensacola
성향
lords
encompass
외교부
재학생
##nae
nominees
kitten
kidnapping
##leader
instructors
detected
groundwater
쐐기
운석
neutron
공사판
##ywood
wars
security
무산
dimitri
원불교
백운대
아이스
연회
facto
bois
brady
breeders
slower
阝
호주
affiliate
jin
얹
강연
거느리
goes
rebuilt
abbot
tampa
cbc
제정
##ne
axes
##drik
edmund
capitalism
triangles
sociology
goaltender
##լ
묘사적
영결식
genetics
regal
vittorio
##そ
africans
Ply
찬탈
brighter
Republic
##elman
priests
카렐
천문
prepares
##riz
reykjavik
計劃生育是我人口史展的必然
towel
1759
언론인
가환환
periodicals
somalia
불거지
말
분화
prom
고층화
blooms
stiffened
##ger
☉
constituents
상해
na
##tori
판단
belts
tub
staffordshire
undefeated
탈피
스티븐
board
campbell
neo
##due
KA
1746
ibrahim
ㅂ니다
occupies
bending
volatile
barrage
CEO
tokugawa
태무제
trend
참가율
sd
interview
patches
양탄자
##rra
[unused603]
truce
##wich
marketing
pulls
061
적대
절리
summit
jody
기라
버클리
layers
YHT
heroic
##alia
sb
중화
편집기
sap
stacks
보육
electrode
대회
앞장서
특별시
adjusted
도달
nice
##ז
uefa
1116
##amine
변호
bankers
rooney
가리키
sign
revealing
seals
alt
공원
query
hms
between
rat
##⇒
##ks
정규
sheppard
중수
중도
paterson
ㅐ
accessible
than
bathed
874
ripping
wyoming
흘러들
참
brittany
trolley
verity
##uchi
##cco
황자
세무
duck
##istle
녹두
widened
간선
[unused589]
##dice
ebert
재력
tracey
부그사쉬스포르
보이저
op
##aq
tatum
degrees
##back
중부
친선
##hit
magistrates
군사력
findings
balls
archeological
corresponds
treasury
윤리
jordanian
프리먼
##xes
enlist
উ
수사처
hostess
enthusiasm
Mall
warehouse
##lent
바르
mann
calls
##uts
penetrate
섭섭하
apprenticeship
장강
postdoctoral
양궁
usb
militants
airline
braid
테크놀로지
honduras
##gara
zebra
결별
백남준
navarro
##陳
[unused614]
##dle
이후
ISDN
식량
coli
고문
¹
모형
영남
lorraine
##ente
몬테카를로
외척
변한
lay
넌센스
##tory
anatomy
ক
##oons
##head
기색
coherent
공정
닐센
mis
##rated
busch
1779
beginning
일주일
artery
도둑
산줄기
stephan
casting
examinations
[unused525]
ear
##zziness
ecstasy
혹은
[unused734]
##mas
hendricks
[unused103]
최고
laszlo
보따리
[unused128]
bile
vantage
1588
describing
circulation
grandfather
exact
protagonist
williamsburg
iGoogle
dauphin
401
characters
offset
임무
##hey
燕
[unused832]
1660
자기장
″
##sus
동치류
currie
spends
##ised
면허
당대
commercial
중국인
##dy
officer
스카이
shifted
curious
보수주의
II
rival
수습
이런
pines
179
charming
steam
##arty
adding
garnered
PHP
##rna
兒
metropolis
embrace
반비례
regulation
##erland
brilliance
middlesbrough
shower
ski
오가와
총체적
mlb
valleys
feb
solving
goa
강도
어느
restored
三角函數恒等式
정확성
griffin
loosen
Compression
##ols
쉐케르스포르
mariano
##plication
파수
浣花洗劍錄
##ec
⊂
四川
forum
어렵
kris
popularly
africa
labeled
가상
광무개혁
라디안
schubert
masks
phosphorus
squat
70th
본토
부차관보
##之
CD
praises
##onus
다마
jiang
##eza
lectured
##チ
mps
prefecture
모즐리
beats
국호
브레이크
##points
매질
ketel
##nsk
centre
bollywood
fit
frederick
교통
##otic
childhood
##ز
관철
susceptible
##cot
##ndi
##nity
창립
shoved
sa
고별
traps
남제
편리
calmly
kendrick
1782
intervention
브라켓
을지
jars
diablo
##at
custer
marguerite
복사본
심화
445200
liked
시체
EEST
타라스
##ﬂ
[MASK]
chilly
뇌
apex
사냥
대한국
descend
##19
##kti
securing
콜레즈리레르
145
makeup
starred
low
dude
##gny
nocturnal
##lars
150
영점
cd
##chemical
유혹
technological
payments
bourne
kitchens
ensure
[unused212]
##dson
lamp
윤치호
transparency
consequently
stated
bahadur
정치인
인문학
호랑이
panel
comparing
전환점
모욕
matteo
엔탈피
twain
borg
calcium
commuted
quan
croatia
통일민주당
splashed
코너
국고
sister
##44
흐루시오프
##thal
naga
개발
conserved
##kowski
replica
drury
つ
horse
bart
##ulator
reuben
kali
gameplay
involving
shields
₈
반달곰
나란히
5771
35
貊
assert
comply
##ality
deepened
후반
ld
bird
박순자
cognition
maps
plane
##cards
bb
##rs
都
철학
sending
파스쿠알
전체
인식론적
antwerp
##nius
daryl
회로
탕
##80
merry
비파형
[unused192]
respects
chet
lettering
##rera
##logists
받침
graders
며
pounding
congestion
리처드
##tail
화학공학과
유석동
costing
loosened
환론
cuisine
##tle
반음
reef
fix
chill
willy
heinz
마주
differentiated
evelyn
##¡
##fighter
spaghetti
[unused98]
활황
land
plaza
싸이트
readily
자유정신
inhabit
helsinki
[unused688]
delivering
염산
[unused159]
insights
결정학
##ington
프라이부르크
##bahn
gripped
vienna
공동
redding
용도
remixed
clarissa
practically
sited
##ao
josie
refugees
오치동
##ale
finishes
Nicola
##dition
country
survivor
##pio
앙카라대학
개개
[unused654]
courtney
침입
세분화
baby
스승
꺾쇠
VH
armory
오스카
doubled
##pen
비슷하
ན
지동설
solomon
압구정동
그것
wagon
적절하
ᄅ
align
리포트
mobile
북제
[unused672]
versa
verbs
reprised
ghost
stopped
accustomed
medals
consisting
speedy
##itors
환원성
stays
stupidity
에렌페스트
14159
주나라
##&
##taff
poking
국무
kay
developers
accounted
jonathan
tightened
amazingly
전문적
진하
market
scholarship
식수
belarusian
rude
부두
##liffe
toulon
delivered
부흥
만화
##ver
assign
대중화
path
ray
twinkle
##inia
easy
##ads
antibody
receptions
반사
##aia
##ラ
편심되
collector
정변
##gren
productive
unofficially
텔레콤
pounder
johor
wraps
##nde
rises
韓人
amc
##dak
##va
swing
연안
타원
319
##戦
실제로
[unused286]
cas
##ressed
사잇각
OSS
abbas
chorale
1462
plastered
bulky
구현
언어학과
vince
할당
server
Big
##fin
명동
미하일
Documentation
stabilization
느끼
Ferris
founders
involves
jerry
historians
declaration
우수
topped
##tling
강제
pebbles
clock
itself
detect
swell
들
sanctioned
examiner
끼
750
sava
중퇴
총각
cork
functional
torino
##ption
175
##サ
spoken
##neer
최
impatient
ponce
saudi
whatsoever
least
language
ethan
heir
ankle
##drome
fox
마당
condemning
prostitutes
outgoing
無射
161
document
##fies
[unused503]
고찰
외톨이
patient
검색어
bandage
부리
tasked
dolores
황제
then
joel
[unused659]
few
추천서
elementary
shreveport
277
mai
##nged
##yt
잠수함
홀극
[unused136]
miriam
##ecure
불능
fiji
⅓
uv
축소
이러
반시옷
classify
운동계
inversion
prevailing
immigrants
##χ
commuting
한때
검사장
무척
marcus
instant
reflect
##dlow
적히
implied
fowler
prophets
attractions
technique
qi
sites
disks
dempsey
폭
constantinople
각자
siena
objection
praising
소요
highs
양쪽
인식
##m
steamed
secret
##odle
對應原理
rosary
っ
##omo
territorial
나서
##inae
상대편
bermuda
children
원자량
##、
der
whistling
428
##table
앙상블
destroying
restoration
그라브산드
モ
battered
##rians
millions
##藤
양당
홀동
olympics
numbers
nyc
이코노미스트
##iq
엔
따지
##ng
reclaim
hearst
axle
clergy
adolescent
costa
vinnie
fairbanks
결재
kyushu
uninhabited
regular
hub
뿌리
후발해
melodies
1672
activism
##美
rail
greenfield
셔먼
원자재
[unused628]
georgina
내림세
제타
암스테르담
gb
Bill
scream
거르
요동
ritchie
견고하
Prismatic
present
railway
claude
ashton
교의
hungary
불출마
선심성
hears
warden
quartz
자주적
॥
fished
##ہ
echo
marquez
fitch
itf
beverage
64
strain
곡물
절차
frail
gia
condor
doe
기간
##е
##ᶜ
je
politically
damned
declines
##rae
##mering
prasad
이나
해파리
##八
##clops
isolated
folklore
[unused661]
fountain
dixon
##cts
최상
천연기념물
zu
ngc
##cio
##lana
registry
##etti
replication
nfc
1894
##ka
높이
supportive
##59
251
?
ع
vase
##tani
착안
brotherhood
켓이
쿨루
length
첨가
1827
lake
coventry
polished
fuselage
[unused431]
tow
##nay
simple
우면산
##thermal
desperation
mabel
cobra
趙
metabolism
smoking
u
##turn
sox
catastrophic
##ur
fundamentally
ramsay
kilometer
harmless
hornet
##redo
commended
機構
B
fits
waterfront
##gga
사라이
cruiser
시도
pair
facing
incapable
lila
slim
palais
striker
##hic
kick
설립
##⁰
shuffling
cf
##lah
koppen
티
[unused532]
duval
pursuant
[unused500]
20
##cial
여운형
강가
string
josephine
##books
reared
affectionately
다시피
형체
jenny
pipeline
recession
명명
동로마
publish
직전
色電荷
startled
역사
[unused263]
르장드르
laser
denise
arbitration
parasitic
hirsch
노년
아쿠아리움
clemson
대개
영장
cooke
bringing
불확실성
아마추어
자원
[unused923]
##emia
체력
qatar
fraternity
shiver
onward
₀
모호하
Mangoldt
사주
##@
yamaha
취미
traveller
fuzzy
sweat
병원
ties
map
albert
spectrum
공판
##chman
laden
auditor
tasted
보리
johnstone
네덜란드
virginia
believes
km
advises
aidan
둘레
그전
로베르트
개혁파
comment
##tino
공존
뒷산
awhile
motown
buds
엔드
학회
왕건
cam
아버지
blew
muzzle
[unused900]
intimidating
thematic
센서스
ideal
gemini
closely
민족
provide
실시
parked
favoured
allies
##τ
guardians
일반
차페크
땅
##burgh
##9
jaipur
montenegrin
고발
회장직
거북선
peaks
boar
쿠션
##therapy
organ
nedra
vow
∆
반문
듯
funeral
bracing
chalmers
ruler
을사
tributaries
basel
도요시마
동예
dere
decent
assistants
##უ
franciscan
대담
architecture
aurora
##₀
##ular
bitterness
bunk
terra
마스카
brethren
another
제이
휘파의
foremost
##和
given
ල
proposes
hanoi
알아보
ා
inn
longing
graf
##rle
strive
kids
disconnected
corona
く
inscriptions
pious
경기
농촌
enemy
intellectual
##kie
개방
##cast
파문
원리
뫼비우스
##～
310
grounds
pondered
specified
battery
합성
망신
sf
다라고
lemon
rocked
did
[unused411]
소리
badges
글라이신
collecting
odor
표기
##ف
tariff
1863
double
penetrated
Fa
3785
monasteries
statista
어려움
owes
System
tottenham
한학
linda
평면
기념관
##raz
IMF
breakout
국제법
##xa
moscow
##stream
蜘蛛
등지
～
Cl
1839
연간
domestic
lu
##fia
##ivation
adultery
villages
coloring
CA
주어지
전임자
hill
테일
moonlight
[unused694]
informant
grandchildren
ه
##ulous
right
시마네
종교
##minster
tile
동검
calculations
stew
aggregation
lear
자주
##max
전파
[unused102]
[unused542]
model
자유주의적
thanked
sound
affiliated
##ny
미약하
caitlin
niger
algorithm
hundred
##dding
##ologist
중부고속도로
tango
slices
tilting
하카계
부르바키
##land
##500
debris
preseason
mccall
1907
reasoning
art
카
설거지
개편
megan
금
지리학회
vine
신념
로부터
yielded
aisle
고령화
bread
personally
res
discouraged
accepted
##ija
##gie
유보
김종훈
##eia
recording
compliant
패왕별희
##25
textual
남미
증식
[unused222]
attorneys
숫자
십자군
dorsal
negligence
지출
##wei
르네상스
defect
1764
##vik
曲
orient
##葉
려는
EEEE
bikini
filming
##eck
추
흔들리
affairs
siberian
관
동화
받아들이
chases
cheered
enzymes
##ocation
basins
추모
덕일
경호
outcomes
amend
weightlifting
dock
intricate
travelers
raw
piano
taxonomy
##meter
##bula
developments
영상
마르
서서히
nairobi
reminds
hasn
유골
호환
##aux
brownish
현실화
몇몇
西魏
lots
deteriorating
[unused609]
rabbi
때때로
대학교
liquid
분포
증언
윤석양
스무
가져오
미술가
suitcase
signage
yemen
##oth
shirts
bing
roared
noticing
##ound
간석지
[unused49]
seeker
##ulata
arsenic
이양
vibrant
cookie
##我
spanned
야망
dG
랑엔브로이히
raven
[unused144]
##cous
joyce
침묵
congresses
prelude
henley
gnu
terrace
요코스카카이
금강
australia
코리올리
1731
##ju
215
[unused464]
remainder
##zio
remodeled
airship
128
유림
fictional
##lette
##bala
불체포
psychiatrist
hideous
보어
sits
1940
합리주의자
연한
sci
이면
pledged
##ovo
##centric
##venor
슈윙거
段階狀
plumbing
domination
##bel
overseen
##arney
qu
##耳
capitals
##ota
astronomers
찌푸리
어족
##nivorous
정력설
김구
bliss
민주평통
##iidae
[unused976]
블로그
##ン
부다페스트
blankets
클릭
깔끔하
수치상
##omi
introductions
심경
엇갈리
핵산
북송
物理學賞
m2
南
mechanically
양성애자
크로나
davidson
obstacles
##ment
player
panda
계열사
costly
하츠
세종로
objected
hammering
ankles
glowing
adjust
##mount
thorn
[unused921]
wound
skeleton
전도
rpm
정책
정사각
##wu
worse
kgb
##dna
crafted
##rain
radiating
##valent
boom
우세
##heimer
그램
records
원작
logs
임의적
gerais
aldo
Analytics
[unused107]
여러
1808
supplied
##pace
outs
waitress
카르다노
##不
##hus
members
보조자
제삼자
huh
##ey
selector
펑구어장
individual
논문
authoritarian
인텔리
쌀가게
선동
rubin
za
sacrificed
[unused337]
博
##cing
##ac
explain
marching
yvonne
인간
ecology
충무로
ivy
varieties
뷔퐁
apostolic
##aru
궁극적
##etto
콘스탄티노폴리스
ATV
runs
##∆
##nda
onions
rana
법
내몽골
수임료
forgive
매진
介
romans
##su
pops
##stituting
panorama
girlfriends
trained
택하
서대문형무소
diameter
체류
essendon
설계도
##ci
금빛
시위대
위키백과
ₗ
printing
호리
toby
##ivist
physical
모음집
populace
야금이
gathering
norse
tanaka
코
방법론
linux
가하
[unused807]
ontario
따뜻하
##月
국빈
snakes
irregularities
이슈
meadows
distinguishes
볼히니아
terminology
heresy
의외
franks
연합군
##de
sesame
쏟아지
온난화
Tectosages
impaired
abbey
poet
오두막
around
flipped
salesman
잔
##formed
marek
[unused167]
철저
immortals
proportion
##water
fairly
메리흐
관찰
웃돌
780
め
motifs
modified
crabs
떠오르
swim
tennessee
kawasaki
거리
blades
obligation
##კ
attributes
jens
간접적
대행
centro
마코토
wren
겨누
eats
blurred
redhead
foreigner
##ش
걸치
shaved
boarding
맞이하
decline
storms
universite
불안
legislative
SOPA
랑
Sommerfeld
blessed
음악계
##gina
##ᶠ
tobin
truth
ore
mane
##qa
##ক
깨어지
recreation
박테리아
chatham
##sk
34
masses
particularly
captivity
##mmon
##mmer
##pins
ں
##ust
manifesto
meyer
1819
mandolin
sandstone
##sco
strings
det
paz
유권자
##ע
3000
지류
sarah
wider
ᄏ
vector
직결
runway
중요성
화살표
has
reviews
joker
intend
Pateni
1901
transforms
프레
바람
ப
접어들
launched
##ands
party
humanoid
[unused45]
gatherings
perry
credited
barrel
luck
shadowed
분모
착각
바이올리니스트
대지진
승부
재입
##bis
1971
무미하
경영난
wire
newfoundland
marino
조절
sanctuary
매장량
detonated
lesions
mutter
alonso
인분
confuse
존재
[unused9]
recital
##tative
노트
intensity
ו
도형
gaddafi
##bound
강사직
manuscripts
근접
diminished
1661
244
album
archive
toy
undertake
momentarily
City
뵐
##ץ
방안
garfield
nobel
단원제
legendary
브란트
briefing
｜
puget
소위
낙선
grassland
jung
nights
국기
pune
감현
야합
screwed
sums
astonished
ryu
##ieg
재질
##mind
[unused876]
[unused517]
##sden
기본권
literacy
##mura
##lifting
galen
Asx
blade
idiots
labor
매각
widespread
psychic
##dies
authorised
homemade
만류
邪宗門
intercity
ein
constructions
##anne
letterman
##ﬁ
##zam
자유대학
thorough
operational
##unes
customized
revenues
linger
보증
incidents
northbound
berman
identifying
complexion
lanes
patio
마이어스
연주
##mith
##dly
仁峴
openings
이동
ventured
[unused425]
##ね
poems
please
wolff
플라스크
용천
기점
kindergarten
erratic
좋
sofa
cues
연령층
백악관
##ova
[unused435]
dane
##-
##cera
encircled
유년
##nio
furthermore
장학금
postage
tolkien
##rama
morals
[unused272]
암사동
owned
켓는
vp
디시
##nan
chen
weeks
geological
liner
shan
ne
김일성
##mates
##犬
nord
##σ
progressed
radio
하빌리타치온
graduation
nudged
##ß
1787
43rd
backward
개입
태양계
scorer
##firmed
도흐나니
기본행
ramps
post
주장
glamour
descends
##section
사명
dormitory
fleet
[unused97]
뵐러
버거
ར
wages
dover
furnishings
mechanical
mimi
권
=
review
ours
기대
apart
examining
muslims
broken
graphical
왕
저녁
generals
##uba
consult
investing
지나
league
earnest
wendell
dimensions
첫째
fate
cried
tattoo
느리
##pher
개인
생물학적
##plify
grimsby
dirt
vol
lam
출간
installations
서소문
referees
##木
saturn
교체론
questioning
슬하
mars
133
##長
##lbert
garrett
남북
recordings
if
pia
intimate
소집
비싸
wilkins
feasible
노골화
재판소
조차
rod
##orth
vermont
##pone
touchdown
inherit
winds
electron
##isa
조직화
follows
870
rubble
περιφηρ
잔류
prompting
감소량
canterbury
[unused570]
##hale
900
barges
##zh
서식지
從動節
##す
때문
grandpa
convened
1892
traditions
리눅스
##tium
사퇴론
declaring
시달리
hospice
oscar
불가산
화강암
흑인
enrolled
##ulated
eaton
olympus
구속
편
refugee
simeon
틈
bolton
viewer
##olf
melvin
끓
불구하
乙類
국보
라만
sarcastically
electors
trunks
니트
road
ness
cone
fascinated
##chal
신한국당
hectare
passageway
publishes
정의
保
역전
screenwriter
서사
##ett
venetian
be
##ap
김홍도
##mento
##rosis
twitched
유죄
계절
[unused68]
eyeing
Student
jumper
belgian
occasionally
이른바
펼쳐지
sunglasses
무역
usl
부근
때
좌절
서남
comfortable
blanco
##joy
014
480
interact
ping
##ago
chelsea
16th
미국식
##jak
penis
doug
운전석
[unused878]
ف
hooves
adelaide
slid
corridor
##ان
』
MySQL
일
음모
kathryn
##ellant
[unused261]
일보
섭취
안양천
towers
ed
돈바스
게이오기주쿠
པ
사실상
proposal
receptors
position
캐시
1786
##estra
disliked
champion
rancho
극단적
owe
원자로
glacier
gareth
##ox
tiles
딱
시멘트
##int
dynamic
que
하르키우
afford
mcintyre
andreas
fourier
디터
텐
pv
유적지
진보
busy
함대
##istan
brigade
##fted
Ka
eighty
태동
권한
grossed
losers
ʊ
간주
789
암
slippery
permitted
보편
flu
다자
열역학적
yesterday
occurred
asserts
alpha
occasional
sphere
피부양자
dime
인민군
얼음
Federal
upwards
北魏
fang
pockets
[unused775]
##vres
부등식
거래
1214
스칼라곱
##idae
삼성전자
표음
monte
chiefs
##usia
hawaiian
##ference
listings
hampson
electronics
deliver
mclaughlin
부동
samsung
임신
양배추
waste
파티
경향신문
mary
sparked
resolution
accusations
##bin
strikes
reliance
##rrado
신도림역
skulls
davies
본인
##hor
무너지
newest
원지점
colony
submissions
stumbled
potential
##vish
여성
河西
호롱불
squeeze
lied
sears
remote
closet
##mark
##ᅧ
cpu
glamorgan
제시
alteration
공식적
##ₛ
glance
특정시
ratio
adjusting
inline
모토로라
Coriolis
ashore
##cine
##⁸
공소권
cao
안도산전서
grinned
##tary
mouthed
##isan
##ェ
eugen
synonymous
원분
waterfalls
classes
##ף
trojan
##tenberg
편향
바젤
김원기
hooked
ron
hermann
##izzly
nolan
마케팅
[unused874]
bottoms
sighing
monster
##et
neuroscience
군현제
시가전
##boats
北宋
##pire
##hya
luckily
enthusiastic
267
##nes
seal
pas
altitudes
programmers
##⁄₄
vietnam
wrestled
capturing
석좌
510
corrupted
crimson
##erated
##ს
[unused751]
##zel
##ented
잃
1664
리비우
##neo
준이치로
##tops
entitled
코르넬리스
discourage
유전적
라오스
spence
제곱근
[unused197]
편협
불경
daphne
조만식
trustee
finally
##iving
genius
contender
equal
shaun
armagh
tend
flared
##pon
기호
caleb
alfredo
라기
##hm
grammy
judging
racing
induction
##lat
##gged
isaac
castes
연속적
narratives
##o
불필요
blacks
generic
immortal
repeal
##ssar
정형시
wander
버팔로
favour
##gna
cho
##│
실력
journalist
##iter
secure
##cen
주사위
대창
##sos
intro
1980
unique
실내
hans
cleaning
certificates
여명
atlanta
##ior
믿음
툴
선교사
##lic
##☆
날짜
대종교
독
불상사
적시
marcelo
aquino
advancing
reputed
지배하
[unused482]
debut
stitch
spoke
angelo
germans
booth
안보
coach
specializes
플라이
신뢰도
armenia
##kla
검찰
##hes
paired
1719
rang
hobby
lea
duet
pba
counts
initiation
횡령
workshop
advocates
youth
beneath
hovering
remark
확률론
##ero
160
samoa
리얼리즘
statutes
수록
leopard
locomotives
김해
몇
brass
extension
containing
RKF
유카
enter
med
주석
stronghold
yawned
billionaire
addict
speech
시어도어
는다고
marred
##nie
##tain
teaches
ecological
창시자
kenton
sentencing
volunteers
190
##ilo
extends
m
대폭적
##anies
by
naturally
wildcats
아이스하키
##real
##powering
주적
dictionary
infinite
seychelles
yong
janet
turnout
필요성
logging
전성
appealing
마이클
ordination
gorilla
##nitz
마운틴
##tious
기하
rugby
spear
##手
mortal
스웨덴
diplomatic
luc
##「
engraved
의결
footprints
tidy
و
270
herbs
pathetic
delhi
bite
genesis
deputy
빵
소백산맥
취재
노출
활용
도대체
plumage
nasal
##aneous
##upt
poisoned
친북
주기
속속
시험
analysts
compartments
instrument
coward
redesigned
muscle
roadside
dissent
surpassing
sanchez
##ala
come
♭·
families
[unused667]
464
খ
fabian
당근
presiding
##eld
소식
CAM
청색
catalogue
528
injunction
컵
##ichi
1624
추가
1910
pulse
waiter
lim
가마
관타나모
##gata
misunderstood
황하
popped
incense
rhineland
어울림
##oom
ballots
serve
zeke
probation
지향
우주학
간디
corinne
종래
⁴
armies
subtropical
390
PF
##rdan
resting
grey
trillion
bundled
fender
요리
fluent
cite
nazareth
contact
effortlessly
최우선
supreme
클래식
wondered
computed
대국민
proponents
formulas
damian
##ˡ
단위
rational
취득
ejected
purposely
thread
highlands
생산량
미적분
dancers
rearview
발효
reply
backgrounds
##fl
헌원
stray
opening
[unused924]
sculptor
는지
디자이너
필
spontaneously
sima
파병
마땅하
##hmi
[unused916]
사후
developed
arranging
height
##ostal
parameters
companions
##acious
3600
탑
emptiness
##zaki
bat
buccaneers
tunisia
galleries
prevented
bangladeshi
understands
##efe
건
##be
semifinal
մ
atletico
근거지
mir
rees
변중석
로드리게스
와이드
四
자녀
625
##zia
reviewer
（
1775
##aris
scraped
한반도
접하
##llar
sumner
##uram
hiram
##yama
##atal
도상
##oles
##mi
관성
江
firstly
tudor
핵력
thunder
##子
thor
scandinavian
fordham
bam
reservoir
분포론
preached
##n
enthusiasts
crank
dragging
##fat
위지
ounce
##郡
고노스케
kelvin
coastline
mathematical
folks
마크
다연장
staged
시미트
kit
scully
telescope
ali
음악사
##mony
roads
foley
stamp
das
메튜
##pic
##:
archaeologists
knighted
ม
bodyguard
easton
cyclist
turning
##rom
아일랜드
generating
preference
ᄃ
이관
socrates
하류
edith
휴학
선풍기
columns
mixtape
calf
WBSC
moran
##zzling
wasting
H
1800
香
colin
archdeacon
promising
동전
수사권
##ic
학과
butte
mayfair
logistical
seventh
왼쪽
tesla
베일
푸앵
##rkin
fangs
anguish
요인
정선
주일
왕검
##ι
national
##elin
rebels
assuming
craft
올드
##urai
bracket
gymnastics
비준
dorm
frequent
킬로그램
freak
panicked
지키
boredom
watershed
define
틈타
horizontal
earlier
braves
crore
goblin
och
계절풍
until
terror
[unused439]
whimper
mca
conductor
sufi
faded
가구
홀로
##nish
song
가까이
##aki
##tra
뇌물
rabbits
1858
rink
amounts
typhoon
dividing
과테말라
케텔
sand
동독
statutory
talmud
통추
##kushima
knockout
regions
[unused313]
social
##ruck
bastards
##cans
thigh
squads
cars
카를로스
##lda
venezuela
Robotics
shu
aide
xu
squared
henan
guitarist
surplus
##bution
island
horseshoe
sorority
brent
carousel
scheme
sensory
언덕
[unused766]
tapped
좀
jersey
능역
##uted
tales
isabel
판알펜
GPL
部分
##־
guggenheim
west
수행
neighbouring
직장
atop
상대화
훈련기
nad
shared
냉전
bump
明
hazard
rope
rounding
full
elevated
iss
##drich
공격적
june
첼로
167
hi
스타인
후일
유아
열성적
wiped
acted
##wen
mothers
327
조충지
다양체
비잔틴
콘테스트
##oya
referenced
speculation
추도사
transatlantic
invasive
사범학교
##lewood
넥스트
madhya
[unused442]
태봉
힐베츠트
chang
##hul
수복
단호하
정인지
wat
사장
domain
원점
민첩성
위력
##biotic
classic
퐁피두
dewey
[unused31]
bicycles
lund
mortality
##eet
발트
handgun
227
1713
[unused852]
leans
breton
##connected
hounds
비정규직
ミ
greens
dumped
weary
투나르
[unused93]
compulsory
음계
풍수설
##eger
গ
ք
켓들은
##±
장학회
fragmentation
[unused137]
##ama
##ien
hawthorne
통산
##dhar
settings
dinosaurs
granny
א
##dant
##aks
체재
약어
##tub
근절
##hun
epoch
bill
drunken
suits
steep
##wara
disqualified
skimmed
##gor
steiner
仮
##ita
dumb
##aday
ᅢ
prosperous
소장파
blond
rabbis
재판부
필진
턱
card
horizons
는열
##tek
љ
haas
김주열
Distribution
애드
노건호
lest
functions
cotton
ceremonies
##comb
분류
resident
eldest
sicily
alexandra
도록
lieu
대법관
eaten
wagner
천억
pius
sir
deadly
manthanein
##finger
grew
중추적
북벌
녹음
laying
tumor
spinal
쓰러지
gps
리만
특징적
본격적
##irs
smash
harold
minas
mccartney
este
buying
광고
##marine
widowed
servicing
논하
ß
jupiter
직
##tase
321
elmer
##ignment
restrictive
[unused639]
수용소
##ropolis
골고루
surveys
masovian
관공서
##tsu
구텐베르크
bournemouth
digitally
ף
sk
stench
연금술
claudia
예편
stature
##gles
위키리크스
모음
barge
##ssion
채드윅
tour
doctor
amenities
biographer
숨기
noticeable
surveyor
##ppe
mildred
##kato
크나크
사구
빚
suarez
인권
mathematician
football
단락
홀로코스트
gertrude
ravi
glasgow
##mill
월세
192
사탄
che
운행
taxation
1825
##ং
논점
gov
wave
120
tribune
hmm
##ħ
##dic
매리
발휘
mae
는가
repairing
##wat
г
미국인
indefinite
anxiously
arbor
##tiv
symmetric
에어리어
turkmenistan
wichita
attendance
burma
분명
애국
원지점식
역학
sit
[unused440]
에드먼드
115
salman
다수당
reggae
cured
plotted
##phus
방화
moderate
emperor
자리
saved
書簡
관통
largely
##guard
compromise
##bh
intercept
stafford
preserving
중국어
τ
부모
콤스포르
tony
익명성
bwv
전문대학
속
투하
병역
신한국
2003
senate
kari
낭독
general
따라서
telescopes
importantly
##rase
다부다처제
proclaimed
introduced
바룸스포르
NEIS
구절
submerged
부에노스아이레스
자국
oneself
befriended
공해
algebra
[unused410]
##mm
prostate
settlers
flat
##san
##ional
gown
글루온
감마
##listic
입사
당장
intensive
authority
대략적
engaging
newfound
regarded
craven
##lais
progressively
mythology
극소수
##ement
도심
포스코
ignores
noticeably
domed
nazis
건의안
[unused643]
weeds
전체적
##xi
김진표
let
strauss
holocaust
aging
ak
alexia
葉
hollis
rna
selfish
relentless
savior
mi
borough
elegance
##hort
frog
acknowledge
lobster
반미적
##tok
miracle
monmouth
fitted
ম
sc
orchestral
abduction
##pse
패배자
toilets
seduction
brien
tier
jude
트럭
leak
juno
spiral
precisely
paddington
뉴랜즈
쌀
wit
द
sinking
##gra
##der
stewart
fears
hodgson
고위직
가족장
planetary
unbroken
principals
canadian
elf
saliva
시모
oklahoma
integrated
establishments
초계기
cell
매장
phenomenon
표지
285
1801
doi
silk
odin
Volynskii
##tead
헤르만
운구
습관화
歌
ð
##区
fame
roundabout
ding
1949
로저
guts
##rne
##2
tapestry
손꼽히
잉여
firms
경제학자
pressured
역선
acquainted
ⱼ
관료
##drum
신기루
accept
deterioration
##lide
번호순
knocks
혁신계
furry
생계
minutes
logo
##ined
##kken
##⁄
자부
telangana
1046
##tley
contributes
##ʋ
percentage
ducks
earthquakes
manning
dusseldorf
국민적
Web
화학
rosa
armenian
집안
##gens
coalition
reverse
ㄴ데다
1641
leopold
shale
관습
johann
depending
단검
fitzgerald
merging
똥물
desired
baltimore
팔음음계
violins
culinary
##nti
haifa
isotope
650
##uising
christophe
해내
techno
individuals
황인
동등성
attributed
careful
dresses
strict
강남역
독과점화
poe
nz
purse
[unused733]
guerrillas
nestled
폰노이만
만물
dial
224
jew
무수히
rebuilding
1991
landmarks
guitars
prefers
grabbed
hidden
常數
logged
##lom
시정
marvin
aquatic
피타옙스키
⁵
사회주의적
일각
##ting
ʑ
##writer
치하
206
woodland
closing
##eros
rainforest
없애
##lite
corpse
jurgen
##sl
略語
152
주시
registered
주요한
##lake
appearing
##会
mongol
southern
사적
neighbour
따분하
##ɐ
agony
geese
revelation
controls
strokes
spruce
서울월드컵경기장
fused
residency
홍만표
cream
良
wii
botanic
ね
이인규
우병우
blasting
영화화
##mmy
consultant
##iad
본부
1626
atkinson
david
##xton
근현대
boosted
wash
hv
crust
탈세
참고
stranger
크림
##star
충북선
debates
##lellan
fivb
surpassed
shivered
##dicated
pour
Physical
inc
raja
##ythe
accession
ㅏ
[unused385]
barefoot
branded
middletown
sandwich
삼국유사
maha
당감
경제
accepts
leaked
insult
##enna
dietrich
hunters
호흡
bankrupt
##ـ
gypsy
せ
thief
최고점
leaned
havilland
π
westchester
농도
weaknesses
guiana
dam
해밀토니언
계열
SETI
wand
주도형
##sche
supplies
nicholls
flirt
lucan
moons
신용
tor
[unused772]
definitely
저하
1745
머물
lexi
##ʌ
scoffed
뇌터
##otype
confirming
나이로비
289
ण
##rik
순방
연장
맨
##nington
##gnan
그동안
organizer
##正
축상
카메라
bail
photographer
으니
2333
완공
wiley
nestor
graph
시위
gathers
서면
가파르
요금
perpetrators
##rage
안현
##fm
paddle
qualification
scenario
한국인
부동산
주인공
skier
choose
luigi
questionable
연필
##ics
극북
카르
ranging
confrontation
풀
como
beatrice
mckay
##ya
assessments
##cle
cinematographer
[unused153]
initiating
tori
matching
crap
mob
nonetheless
구시가지
defeating
trials
수제품
휴머니즘
갈
households
김성숙
reed
용매
acheron
mm
아랍어
psalms
큰누나
blackout
pierced
제각각
교차
##plane
붉
fuels
influenced
θ
slovene
##apa
빌헬름
상경
구류
중심제
backbone
요즘
skiing
jihad
중동
##sack
unarmed
##color
remorse
공중
knock
waterways
스핀
##保
kerry
ruthless
네오콘
chiba
##rand
bribe
##hl
##lby
verified
antilles
filters
arson
francisco
포텐셜
##れ
china
ea
bragg
tropical
[unused174]
factors
##rek
payton
too
는다는
전례
[unused415]
##bain
patents
부인
黃土峴
##islaus
sloppy
extraordinary
점말굴
모자이크
accompany
완패
imposed
##lland
fascination
andersen
회전
##leaf
patrons
nrl
campuses
exclude
liberia
swirling
gallantry
동질화
banging
develops
succumbed
똑같이
동맹국
원리적
disorder
cantor
##rad
카비보
john
litigation
breadth
move
gables
subjective
lullaby
##las
agrarian
盧武鉉
1936
뛰어내리
appoint
erect
delicious
employment
briggs
정년
김정일
devi
♣
crowned
undercover
buses
audit
generally
형식
unesco
로고
noctuidae
[unused886]
positive
이점
##wicz
임금
공관
밀크
비로자나불
증권
Dwa
slice
arts
##hyl
초기
##ross
deploy
##aus
maximum
음소
거절
variation
##ouk
想像
108
맥족
par
minerals
그곳
bars
fling
333
read
##ш
immigrated
intersecting
계몽
##pps
불만족
liver
environments
reopened
sq
황화수소
종족
suites
광고판
kicks
광주
##ecin
kansas
##nable
wil
당숙
travelled
with
##zy
hank
gritted
investigating
dobson
boys
운동장
가득
sykes
advertising
##ʑ
exchequer
voyager
바누아투
relational
upscale
makers
moroccan
약화
##ida
jennings
Milliyeti
emancipation
time
ibn
vidal
eras
nasa
인격
황금
alan
하천
무렵
ㅛ가
mellon
stout
mikey
reliable
indictment
##ental
주문
comprises
venerable
granite
880
und
##urian
unity
취임식
incompatible
LIFT
caucasus
화장
pamphlet
tactics
parapet
oils
##cht
대동맹
profit
denoted
##iful
연맹체
bursting
micro
conversations
burrows
governmental
PC
당
격렬하
다가서
모으
積分
##tagram
##ж
팽창
##plex
coloured
atm
띰으로써
addresses
Ligi
##pc
acting
inspect
ranked
punches
madras
1a
반항
##tet
鄭夢憲
##ques
간호
대통령직
인물
covenant
입자
690
Bak
chromosomes
미야모토
00pm
olympia
실직자
쿠르트
어류
Lowe
dB
differed
너무
stephen
히치
화북
조합론
미상
243
294
이벤트
긍정적
우분투
샌프란시코
tong
basha
실행
보
〈
palma
지침서
##erie
halifax
##ject
모래
민중당
crisp
와카야마현
liberty
대통령제
씻
trinity
kent
mentioning
corporation
illustrious
전자기
##ria
merger
도쿄부립
겹치
##llon
몽골족
Portland
##་
평안북도
국민회의
블럭
chesterfield
국교
savings
kai
청탁성
명나라
##rative
episodes
cavern
입상
독재
pedestrians
식민
아동
thrust
쾌감
communism
maltese
##bies
seater
##osing
sixth
킬로미터
philharmonic
palm
yearly
commonly
feminism
greenville
##hine
enjoyment
cameroon
만프레트
momentum
오로지
정렬
drain
紂王
무시
##sell
[unused150]
강변북로
bum
ʔ
피아노
wheelchair
##₍
##birds
omar
세종대
알갱이
심하
아쿠다가와
cosine
reactors
jackets
greenish
someone
##bbon
prophecy
친위대
telenovela
감량
kira
##rer
시공간
bono
barrister
dismay
서울특별시장
als
commonplace
수천억
temporarily
329
##uta
assisted
lil
서쪽
##abad
얼마
##gs
bodily
slap
롯데
##town
swept
전문가
쓰
drums
miner
grimes
##iography
전사
記述
italianate
reduction
neumann
##ᵏ
병력
cadillac
occupations
1963
sharon
근
inexperienced
##¨
참배
스탠리
가나다
sighed
742
촛불
canberra
덕
list
nottinghamshire
lorenzo
irritating
##dgets
존속
fire
glow
진짜
##rger
단원
skeletons
chalk
신자유주의
australians
지론
레온하르트
wings
급속
바라보
winged
失地
다니
albion
장막
damn
grace
##lum
immediately
mouthful
virus
90s
hind
Subodh
사전적
custody
frown
lyric
gardening
SRT
대북
icao
Bruce
작성
welding
내분비
혐의
runways
당내
##din
reissued
평의선
단양군
##chen
저술가
이스라엘
그리스인
zoology
습윤
octopus
데니스
jackie
##tute
extinguished
piled
1976
magnitude
consistently
wonderful
subsidies
johns
##mis
envelope
1682
月
alarm
체계
appearance
croats
homestead
##ג
특별히
darkened
worship
macy
rebirth
queens
화식
부가
signals
herring
camille
runners
gonzalez
Bar
sabotage
week
₂
california
gundam
멘델레예프
derbyshire
diagnosis
나이지리아
wellington
consulting
묘소
휴전선
##qual
원제
HO
¡
헌정
apostles
answers
##wai
핵심
과반
##hen
goodwin
realize
tbs
유입
Hoesslin
recess
scored
sorting
##fahan
##imeter
departments
financially
찬드라세카르
disease
bash
차후
##zu
mutiny
용이하
대수학
ronan
generous
grips
lays
##nberger
001
우치무라
##ocks
##gil
danger
태도
hopkins
##thing
yahoo
Gven
##ags
부산일보
realms
vidhan
lowlands
studio
demonic
abu
골롬
recruited
penn
puts
##侍
tanker
aftermath
anymore
vanishing
성수대교
early
동그랗
촉발
networking
권양숙
ugly
survivors
후배
유럽연합
requests
##ian
papacy
반하
vines
##≥
upgrade
체온
##×
numbering
전자화
executive
iaaf
arthur
temperature
freshwater
##arus
rogers
cipher
##atz
황소
carlisle
빗변
retire
parishes
towing
rifles
CGS
성립
reluctant
불가리아
vertigo
buzz
엑스선
원시적
clandestine
복잡성
라며
descending
정황
reader
realises
##lain
ghanaian
enrico
##typic
[unused830]
507
##¦
##64
direction
링크
sacramento
ש
ja
[unused339]
통상적
##lessly
교신
반복
endelle
Project
[unused413]
##os
neolithic
arithmetic
cruz
입
##eus
precipitation
muriel
rosario
navigate
으니까
memorials
카이저
##eland
비관성계
충주
Bus
가입
blessings
##bbed
impose
505
mod
hooded
장마
차폐물
글
significant
watkins
finalist
##rdes
electromagnetic
cinnamon
tone
projects
구조
chiefly
##法
bidding
colour
##urus
morrow
cola
bisexual
48th
대표작
정윤재
virgil
직경
monument
journey
somerset
교구
1279
건설적
upstairs
섬
appointment
demoted
베이스
motion
cerro
남동부
음악가
##य
중수부장
[unused513]
engineering
defaulted
marathi
wrecked
281
portsmouth
tavern
##18
경험
nathan
##isch
marius
계량
intervened
competence
donna
558
[unused693]
fabrication
blow
주임
당학덕
rewarded
287
부탁
comet
successes
##sko
attract
alexandria
중심력
영구적
##umi
연고
식료품
EU
your
grooves
홍재형
##ᅭ
오산학교
적폐
technically
상승
사정
forming
아서
segregation
conical
여기
그
councillor
유일
[unused44]
yellowish
น
montagu
표출
Ghost
[unused610]
R
mutations
대류
separated
Yokuu
[unused687]
자동차
wrath
properly
magdalene
신라
´
airspace
케틀레
태백선
breakfast
Dyson
gray
young
supply
acc
국가
실제적
ether
siegel
실질적
old
hartman
expeditionary
manipulate
[unused492]
TAI
610
쇠퇴
국적선
[unused193]
leicestershire
랭
conclusion
신한민보
organisation
궁궐
141592653589793238462643383279502884197169
slick
##ums
purported
1822
대기질
pressures
pac
obeyed
differences
##⊗
loyalty
929
javelin
rosalie
동구
mei
1804
##rew
선별
∇×
그렇지만
프리드리히
제자
염기성
이야기집
maroon
일로
brightness
열도
짧아지
trousers
##ndt
데미르스포르
tries
boundaries
forthcoming
candidate
politicians
iec
weak
나
초고밀도
lies
등식
용산
clans
punta
[unused183]
mirza
아랍인
출생아
bordered
크즐라이
Martin
국무부
우주론
팔레스
두개골
##station
undoubtedly
##tm
electoral
whipped
discus
위인
charter
stimulated
り
fulfilling
checkpoint
cycle
while
intel
palazzo
clasped
bobo
coats
##ffed
mr
erika
산뜻하
Algebra
baptized
nearly
끄트머리
반대말
voters
가축
청소
망원경
##kee
constraints
명시적
vaulted
[unused231]
통
castles
laborers
bouquet
##asa
measuring
기염
domains
ᵏ
marginal
chart
partially
조언
ranch
seattle
sum
stephanie
제약
##df
nt
망
프롤린
subsequently
complimented
amulet
alongside
주간조선
nuremberg
iy
nigeria
##his
clenching
흥례문
포털
dubious
shipbuilding
##rks
사안
우화
pakistan
wesleyan
1710
밟
[unused991]
hungry
clarified
christi
##shan
clenched
athenian
정치학회
##pipe
о
easily
whispering
new
concern
pulsed
broker
vicky
대
고르
haunt
##ount
##scopic
황
stockton
패망
diversity
cramped
##ajan
전욱고양
##inga
educational
##pt
beck
arturo
Mary
solvent
bala
confident
경호관
683
modelled
이메일
gt
dictatorship
colombo
sadness
snout
defense
lead
bridget
bradshaw
내접
비네
혼죠구
revered
siemens
원나라
전술
거부
一次結合
블랙홀
downstream
포장도로
조인
allmusic
강제적
reconciliation
Hurd
저격
comte
雙生兒
massive
herrera
lbs
ツ
Halych
bradley
militia
shareholder
후안
indians
##bba
방문자
방호복
strategic
eligibility
일요일
전자적
bizarre
fetal
근사적
ャ
kernel
박애주의자
topological
taylor
grazed
##des
biology
##lard
스포츠지
[unused946]
shore
뒤처지
pussy
isla
재료
sip
drying
rooster
wong
heel
focusing
상상
##ioms
synagogue
##eum
designated
somebody
pseudo
renaming
apron
exposing
burger
무소속
prowess
사바르
aviator
scratches
oh
fenton
consecrated
cycling
ם
scotch
schwarz
cheney
characterized
가환
##udeau
그렇
tactic
ᆯ
소통
handled
##page
countdown
수송용
{
distraught
가르침
[unused170]
##oses
##spar
##ა
accurate
파악
##rled
acquiring
벌어지
restrict
jewellery
galway
so
paper
뉴
미래형
olds
achieving
outrageous
발송
1762
##dance
隋
crippled
는다
인간관계
##zbek
무제
franco
##pped
내세우
외무성
levy
선행
bridgeport
##mc
endemic
shay
justification
나레이터
leap
biennial
night
##over
##հ
놀라움
##uis
needy
밀도범
blood
이등변
solitary
보편적
맥아더
tulane
카야쉬역
prison
distinction
나뉘
유해
bass
macau
[unused859]
몰이
##eiro
흥하
시가
boat
장티푸스
bunny
adele
namibia
폭발물
underwear
caravan
[unused803]
turing
ζ
glided
paolo
폭동
prototype
ile
jennifer
notions
불만
unconscious
자서전
김동길
realm
あ
mammals
평전
전환
gao
moravian
##ulo
아크
turbulent
recognizing
fork
gag
howled
tiger
whenever
암시
entourage
option
irrelevant
분지
##pala
robotics
배각
항의
cents
##nare
fund
형식화
wanderers
turtle
cult
heaven
##ony
vassal
불면증
relation
강력하
[unused905]
##app
문공
airplanes
awesome
supervisory
##ection
brute
스타
previously
흑자
Yksek
한자
응답
과정
##д
부덴브로크스
poison
breached
applying
√
gala
##bay
naia
스크류
made
firing
##cre
sixties
ɐ
croix
slovakia
##meo
inventory
분출
##з
phyllis
宇
Margulis
beverly
novak
rhone
뒤로하
##eaux
경오
커뮤니티
더욱이
kicked
perfectly
exists
nightclub
complete
愛
prepared
combines
##ieri
vision
passes
콘텐츠
farmer
murder
레이더
drenched
##ལ
engaged
medicinal
영어
hotel
tracker
secretly
ರ
축적
##ض
earle
decks
nbl
formula
힌
왕징웨이
한미연합사
##fr
usually
gonzaga
Standard
##olate
warmer
##iano
TT
군상
pathology
##tama
deter
헉슬리
entire
위법
표제어
발부
policing
##scope
bombardier
dudley
stacey
amplifiers
suriname
attending
S
ल
사촌
scoop
열심히
spartak
poster
guo
##bing
##type
shell
lose
medina
rapids
↓
gregg
け
sutra
shielded
watson
picasso
web
##uin
[unused738]
cfl
employ
시내
문학계
##aling
못
##心
예견
coins
cardiff
Stephen
##tered
servers
conscience
esteem
მ
coyote
gen
KRA
catches
1029
aided
gideon
donnelly
point
lateral
turnpike
##พ
　
구식
##igen
淸
비지니스
陽
cocky
gunnery
salvatore
franchise
고위층
roommate
717
dennis
attaining
iberian
会
윤성식
수은
음
incumbent
ports
nests
버섯
할양
lauded
[unused898]
contract
directors
우치다
christian
key
thud
대단히
scotia
movement
식
spilling
evidenced
##mori
cooler
whole
suitable
##ij
balance
translating
파랑
##cala
faithful
masonry
##მ
##mans
dismantled
다항식열
pursue
manned
결선
classroom
likely
대대로
reno
commodities
delaware
작
##14
milwaukee
허파
KK
총회
shops
revenge
나가이
사이
film
58
##ino
지도하
alba
대한체육회
ч
##島
학창
##70
pulsing
ध
배우
##itive
치료
##gies
distant
좌파
squares
##rts
flyer
##dened
proposals
allie
arab
oder
전북
매출
군데
와일드캣
##balance
쪼개
toledo
groningen
pig
극대화
schumacher
郎
##60
유머
predator
tables
sidewalk
##hai
법명
poorly
集合
ᴰ
flowers
refusal
[unused637]
energetic
집합론
잉구슈
##ɪ
혈액형
제외
admitted
recounts
yep
Ultradarwinist
[unused902]
##gated
orr
horizon
gibraltar
1732
경호원
frey
忠
단위량
ethanol
brigham
순수
≤
##ink
[unused479]
paralysis
반음계
presentations
siding
bismarck
erasmus
treaty
북방
ghent
computer
com
unlocked
하인리히
tanzania
종목
언어학자
##ɔ
wall
nutrition
스케이팅
tails
shaken
simplified
##ワ
접속
entered
handel
[unused196]
sorts
영어권
총합
Ba
생성물
선거전
encore
apache
##oes
흉노족
suzanne
##hari
[unused237]
850
[unused505]
後
더더욱
marine
혁신적
身長
##ulously
무리
묶이
그라스
노선
snoop
maybe
neoclassical
##ʷ
페레야슬라프
designation
hiv
##bria
[unused300]
##マ
show
각박하
quiet
belmont
28th
audiences
endeavor
potsdam
congregational
Hendersonville
處置變因
##ი
완전
ME
복합형
monterey
계산론
phd
##sas
##11
谷
christmas
가꾸
directional
논거
spared
antioch
동시다발적
ら
corner
turbines
양력
ㅗ
shores
fans
전략적
구약
vegetarian
6th
rick
continents
iona
복귀
##geny
peg
##litz
變形力
volunteered
purcell
생물학자
##ия
##romatic
부옇
entropy
lakes
통계학
accommodate
34th
nomenclature
dip
차례
paradise
furiously
structurally
dire
형상화
유물
어떤
##waite
연극
included
membership
pretoria
민권
hahn
anaheim
shallow
amore
##oku
orthogonal
##chester
spells
vein
134
turbulence
dispersed
##yd
£5
##হ
뒤
몬트리올
가속도
radios
서비스업
관광부
souza
단말기
aquitaine
##nk
철새
annoyance
permanent
##sities
피적분
##pel
부딪치
uncommon
후진국
요르단
luftwaffe
funk
##itation
국채
sui
경력
clapton
barnett
교통량
[unused333]
ɔ
##ந
자유롭
menace
screenings
[unused7]
장조
places
thierry
hurts
youthful
antarctica
settles
VIP
난자
[unused546]
##eke
의화단
fruits
##c
pulled
공용
tracks
involved
sleeping
chasing
exploitation
weighing
naughty
##ciency
whatever
데이크스트라
양전하
agile
개
삼
development
정설
이론적
극복
공화
십육국
##bson
stir
broadband
gee
[unused611]
toronto
##ᄉ
jumped
옌시산
극한
subcontinent
ᵥ
resurgence
중화학
추도식
asthma
fulham
disclosure
gestured
[unused104]
earnings
셈
##rya
taxon
옵션
external
rochdale
##zers
harsh
##hora
光州
기조
া
broom
massimo
karate
입학
repository
##〉
germanic
홀대
amended
NATO
institute
effectively
실계수
개울
쯤
newcomer
awoke
groundbreaking
관악구
[unused944]
tits
folk
음역별
##zcz
mons
christ
[unused341]
##内
lawful
##с
대칭성
청소년
임야
##i
—
안쪽
ƒ
제임스
HH
##hta
eye
derivation
척추
246
우유
그래서
사람
marlborough
territory
bilingual
stagecoach
are
총
mainland
curriculum
foot
대기
상가
진술
kentucky
ridiculous
greta
communication
oxide
broughton
월동
frequencies
##ང
가일층
milos
운동가
##borough
문물
단편
전달자
육지
islands
쟁의
tattoos
neglect
vodka
speaking
tornado
facts
क
losing
counted
급상승
shropshire
##rick
복소
certainly
펄로
조류
measured
fay
국적자
남서쪽
##ल
명쾌하
정보량
tight
lineage
##cheon
##rries
순교자
##ntes
abolition
[unused299]
외교권
무연
문필가
##icon
피선거권
paraguay
##ب
##sg
Googol
##ᵢ
소총
han
fashion
근이
em
average
removal
aka
##inas
문중
천문학적
단세포적
[unused245]
prescott
bain
diamond
##qu
[unused368]
uzbekistan
down
bellevue
fortified
굽히
nasty
allied
dawson
싸
lawyer
바이츠제커
금리
[unused139]
replied
munster
##oca
상반
necklace
성장률
국내외적
church
describe
[unused945]
hallmark
attack
collision
[unused304]
##entes
##aking
고자
ᅯ
충격적
terre
드물
edition
layout
banner
awarding
춘추
descendants
wardrobe
battlefield
1931
beverages
strangled
flea
##bry
Carel
drummond
samson
자유당
해양
퇴진
창간호
147
농업
valued
diamonds
##aver
빠뜨리
진주
hopeful
DMB
##ctus
대책
search
秋
확언
patronage
크기
distance
structures
birth
ultimately
battalion
miscellaneous
개척자
accompanied
foyer
shifter
Reference
bulge
aids
nc
adolescence
지어다
drama
fx
standard
넣
연중
thames
technology
##lena
국정원장
possessing
옥저
paying
##chang
cheese
##ization
[unused866]
메가
biscuits
멀티미디어
축재
cites
biking
riders
##cian
동법
[unused450]
푸르
ways
graphs
지옥
glared
낳
fungus
admits
[unused225]
##宮
sourced
충원
판례
현대자동차
broadcasting
indifferent
drive
521
엄밀하
2010
loans
사춘기
pained
positively
##ˢ
epa
chamber
##อ
북유럽
assists
vito
730
punched
사설
diesel
potatoes
resigned
monsters
클릭당
silently
commissioning
어떠하
jorge
ケ
##⺼
marxist
##ding
620
##lkirk
athletics
genuine
수평
giuseppe
##are
exports
1734
cart
흡족
가키
반미
finalized
구골플렉스
catering
vanessa
##rral
570
밀폐
bridge
순환선
duo
법안
asean
문화유산
him
진정성
[unused295]
armand
crowds
archdiocese
rediscovered
장이
THF
overturned
represented
리아스식
황우석
헤일
receipt
##acing
nas
wi
comedian
m³
bowled
자경단
demanding
varying
constable
aesthetics
trajectory
저상
grove
ㄴ다
상호
##nine
274
darts
유장
공여죄
differentiation
한두
##ಾ
venus
중위권
proposition
scandinavia
##bino
##ings
husband
actually
##¹
임시회
antonio
가역
단치히
##lce
##rrie
286
밑변
knows
따로
psychedelic
homework
머리카락
##au
##ん
유니코드
which
##iface
신제품
##polis
uttered
loki
ram
##新
Na
uncomfortable
clayton
MC
scope
regent
ashe
본격화
동부
trafford
##hony
rollins
ass
mayor
##г
finite
도미타
pleas
daughters
modes
obituary
ლ
James
##itan
언급
rudolph
히가시
otago
##chua
pull
swedish
[unused624]
chilling
##”
pub
##z
carlo
fishermen
գ
edouard
surfaced
159
rest
costume
η
sprayed
급수
fake
타이어
패하
##ほ
9
squirrel
lordship
여초
orb
bohemia
reassuring
departmental
scrubbed
granada
flip
occurrences
울
implies
[unused81]
ᴵ
negotiations
1612
lecturer
peruvian
[unused278]
라이
reasonable
offerings
디
바퀴
사상적
ambiguous
아드리앵마리
fascinating
continual
라이프치히
ich
부지점장
beatty
digital
dilemma
otter
assassination
palette
##將
##sch
##12
허구성
로랑
누르
##mes
라도
clears
intent
##ards
투쿰스
awaiting
electrically
##4th
##ania
earned
##奈
395
climbed
원성
stamps
石
freaking
ever
contemplated
[unused814]
buck
repertoire
dates
premise
632
에시노라리오
hellenic
alzheimer
best
guitar
##56
글루탐산
세바스토폴
compensation
buffalo
postmaster
locations
ہ
bloomington
불문
ohio
매뉴얼
불심
unspecified
ʰ
gunmen
陶唐氏
luz
shut
안기부
영아
pick
blockade
mrna
langley
erebidae
nausea
planted
न
##gration
헤라클레이투스
ornamental
surreal
spiked
chronology
barak
gun
진정서
③
집권적
shadows
충분하
sad
편견
산출
dominating
investor
베이
재소
##γ
시기
filing
away
dog
offshore
hammond
minh
implication
칼슘
qin
westphalia
barons
##mined
강자
##sar
다면
composite
단편집
초래
pairs
[unused837]
gallery
800
melinda
범죄
韓
원동축
offered
fixing
원정
보통학교
walled
streaks
##jk
heavily
김근태
유저
demolished
##宀
encounters
lists
편의상
feldman
suited
분자
東魏
법선
concerning
classmates
sporadic
mum
himalayan
푸앵카레
conglomerate
manhattan
cat
##hing
dispute
economic
transgender
門
2000
##ₜ
penultimate
반도
∧
1717
convex
threshold
amy
원적지
installing
freiburg
##rwood
몹시
overheard
건너가
assaults
childish
missile
주간지
언론
rehabilitation
[unused217]
huey
85
288
[unused818]
batted
민국
항소
##mbe
[unused562]
##reen
regain
뷔르츠부르크
손발
[unused600]
richard
브로이
일렉트로닉
migration
holden
gus
led
344
cinder
need
ethiopian
minds
cleaner
debuts
carrot
tigers
볼일
dubbed
##ili
gaze
sven
아이폰용
국공
##swell
companies
비트
##tat
gravitational
distinctly
enrique
iced
warily
개발원
[unused834]
동북아
이스터
giovanni
##rt
halloween
leger
slump
##`
반포
principality
curator
##版
청량리역
물체
said
extend
1841
상당
engineered
Makina
##link
##xia
##博
스페인
격변기
ruth
novelist
armour
cushions
나트륨
##rified
tried
remind
elijah
digits
hints
##arable
는데
쯔비터
松
lure
cabaret
##uj
세대
해발
rita
##ga
armada
규칙적
마안
dealt
plant
시발점
verve
resisted
resigning
자연현상
##ti
##aw
licensed
전국경제인연합회
automatic
##sm
socks
endings
flexed
정복
##graphic
instability
tingle
nassau
po
168
협업
written
tribute
counting
unsuitable
소규모
##¶
대수적
franklin
[unused823]
inactivated
ე
naomi
defines
왕래
pic
help
일자
1720
inlet
karlsruhe
다가
freud
fearful
##sts
shooting
gmbh
본문
einstein
passports
pretty
##金
590
식사
hovered
steak
부활절
층
영서
slang
prohibiting
힐러리
oldies
자격증
actual
cervical
icy
원적
cook
tau
암호
venues
가짜
후량
농사
director
republics
afternoon
distracting
##or
##rence
loan
##ncies
##drop
유발
drew
귀찮
erection
versus
비우
Partisi
clary
회부
[unused70]
[unused157]
arrest
영감
passenger
윅셔너리
##vot
통신용
restart
olympian
chopped
力線
[unused21]
employs
suggestions
린다
모면
earthquake
delay
sexually
darby
lifeless
찾
macbeth
indianapolis
denote
aback
드네프르
##hner
##ක
프랑크
protein
cash
사고
鷄友會事件
lung
choice
##ک
북서부
adjective
proceeds
griffiths
##ult
제트
분기점
uk
1749
inform
단어
friendship
ren
##tp
ban
##lating
conceal
##da
duty
서양화가
pillow
##⟨
sneak
##lika
Physics
compiling
ㄹ지
cast
Parten
rejection
183
gymnasium
cable
supports
detectives
방미
간도
대체
seat
ballard
software
금속
올림화
[unused247]
climbs
reminder
1932
brooks
painting
stimulate
ana
렌더링
successor
flirting
##hiko
orchid
fiction
문병
ceded
pushed
everywhere
combinations
##position
##tzer
선생
마쓰타로
meter
##masters
인트라넷
unnamed
eucalyptus
prematurely
club
[unused416]
280
website
리스트
##pole
rim
바보
samantha
##₉
장만
[unused441]
instructions
생태학적
issued
사실
게시판
칼
prosecuted
내재적
thumped
mcgregor
islamist
ou
sample
bis
invincible
ceo
decisive
to
##bid
구정치인
chop
mitsubishi
min
재생
sikhs
considering
blackness
##ware
꼭
partner
기초
luzon
[unused522]
색
트위터
logical
독도
의사소통
종종
relativity
1687
뿐
koch
완전히
##leen
en
damien
ave
redwood
[unused975]
conrad
행정부
sins
grid
internment
climax
##pot
두둔
physically
civilized
##like
moors
보도
孟峴
주간
[unused312]
##uk
악어루
reform
persuasion
engagements
거기
미에키치
##culus
머무르
planner
focuses
##見
championship
##nburg
restrained
vegas
한계성
passed
끌려가
tangled
lunar
##dial
가필
hazardous
이번
##zic
christy
꼬레아
무늬
선적
##rized
올
carla
eyre
1950
원자론
복역
EE
[SEP]
ø
terence
##im
survived
거
porte
변인
참패
갈수기
located
사사
창덕궁
##era
troupe
authoritative
지하상가
한마디
repulsed
checked
##vet
abnormalities
brewers
derived
gael
##ners
sadler
confederates
eli
δ
waking
비중
councils
computing
충돌
cave
loyola
망가지
amongst
discomfort
cu
documentary
nat
loaf
deception
프로
advisor
##oir
mount
steering
클린턴
##秀
belly
distinctions
transient
peerage
[unused376]
mornings
##ig
rolling
smuggling
soothe
nominations
##arian
stephens
184
##φ
[unused156]
재가동
admire
lectures
jamestown
ನ
compressed
pool
1654
parade
breaker
claudius
parted
searches
highest
홍해
lithium
beg
時空的
francaise
owls
wrexham
000
##mani
fidelity
torpedo
demands
gospel
오피시
imperfect
주연
lombardy
##trust
alexa
##iensis
keyboards
둔치
decision
분위기
소유자
headlining
liquids
##boards
도기
atkins
변경
postponed
colombia
날씨
eu
accordion
asia
##sner
clips
losses
영화배우
greensboro
rufus
[unused257]
하늘
acute
반외세
palatinate
전정
영미권
선행당
무한대
climate
집성촌
ㅇ
천도교
obviously
##rgan
##liche
צ
detrimental
ascension
이주형
searing
clawed
potent
behavior
##yna
or
끼치
954
tourists
switzerland
##lty
train
minsk
faced
김원봉
[unused754]
주둔
축구
bicycle
##瀬
미분
톱니
those
charm
회의
dragoons
agreed
次元
##wide
기압
অ
onboard
피혁
##linson
##gnant
humans
greer
error
2002
quotes
urdu
pottery
##baum
부분적
##pts
##christ
trees
양극화
빌
점호
매년
acquitted
家
357
thompson
##sti
Brothers
쌍방
phoenix
[unused311]
download
namesake
실지
type
상업성
기와
##sby
stroke
##nta
징역
개경
##kley
afterward
ka
erosion
chemical
repression
##yle
inherent
retains
theologians
knew
f1
sinn
binding
ponytail
산화성
coe
affects
적
##patient
wants
ivory
jesse
vishnu
간섭
physiological
아티스트
베다
conserve
branches
americans
위성
baccalaureate
archbishop
streets
쿠빌라이
thankful
cameras
아래아
##won
anand
clit
##rwin
435
prototypes
건드리
ottawa
∼
##lowe
고원
&
펴내
mercenary
final
kensington
celtic
dee
안상수
방직
타이타늄
beethoven
ethnicity
##missive
##ulin
승소
저기
affirmative
논객
##外
##erved
reproduce
##rate
서울아산병원
tko
retaining
paced
space
모헤어
sensation
##fort
##son
louisa
commuter
lesser
##balls
민주노동당
##佐
skipping
재혼
##hesion
jobs
##ison
##ntal
##ele
correctional
문항
briefs
patients
동해
depth
danzig
##ther
bolts
thyroid
pleaded
운항
경매
immersion
##och
stefano
##մ
오직
front
bela
##lley
informed
aix
ezekiel
##vu
giant
noted
福
estadio
flags
##holder
chesapeake
directed
nuevo
##arding
apical
##yah
springs
변론
harper
constantin
mel
efficient
auction
timeless
turn
Quaker
##erton
##$
awaited
조와
tome
[unused911]
편집인
교통수단
sleeve
다목적
ɑ
질의서
전개
ordering
온라인
heiress
##家
races
##hane
nippon
london
puff
upgrades
colourful
##kk
fairness
무한
[unused452]
inaccessible
ks
thankfully
치아
joint
chapel
archaic
하얗
aggression
##jong
madeleine
チ
witnesses
jordan
russians
##ratic
choirs
theology
실적
breakthrough
초헌관
calculus
사면령
≪
전시관
1725
parish
advise
teresa
복학
현
街
[unused728]
identical
##fe
conceptual
subsp
549
pisa
북측
‡
ribs
##fide
treasurer
waist
gillespie
rotten
##ffey
elk
cyclone
용기
mitochondrial
다각형
resembled
등장
ingrid
changed
660
##inian
へ
depends
cryptic
##ious
survive
buckled
trondheim
wiring
##dermott
도구
수출
million
bullock
시로타
corridors
단군조선
여진족
senior
알아채
교정
요절
체포
frescoes
hoffmann
efficiently
##nat
귀가
투표
형제
사유림
##tch
10
BCPL
압도적
middle
fiancee
passage
johannes
embedded
Ca
말소리
##rio
collect
images
유일한
வ
reserve
##cion
##rone
##hunter
mississippi
카르파티아
stem
##iba
##dget
모체
photos
##sis
gran
referee
yet
collided
##oteric
깁스
slender
ㄴ담
소득
##owing
파타
기능
튀김
분제
多樣體
sirius
##lma
archaeological
sal
입술
soundtrack
mohammed
입국
##werk
designer
후원자
발표문
Taylor
industrialist
censorship
nose
sympathetic
##riam
radiation
hairy
boogie
connected
them
##izing
certification
clothed
고용
cases
심사
octagonal
stretching
귄터
inhabited
거액
독창적
##uve
pot
##hos
ref
관련자
PGL
##ʲ
hiking
어머니
不
bruise
downwards
hatfield
소설
예언
felt
가지
powers
sudbury
임상
puebla
silesian
eden
factory
rotting
1648
##belle
ぶんこ
racer
bafta
시민권
부드럽
[unused537]
극도
##ged
설상가상
##ʾ
trombone
compose
explorers
조치
메모리
##yoshi
견지
testament
##tera
못갖춘마디
##eal
tre
##tonic
hue
수술
성대
sgt
제관
cleopatra
ears
inventions
den
momma
##ᵐ
norwood
smell
##works
trails
타이베이
persecuted
선원
wilmington
틴버겐
세례명
겐가쿠
##haw
메테인
propulsion
shri
attire
mines
계절별
regarding
[unused271]
317
부딪히
commence
永見太
불가피하
wingspan
노랑
brest
inspiration
불리
장편
추측
outlook
cartoonist
correspondence
동남부
upstate
169
##nir
nautical
kappa
파행
creation
stiffly
[unused906]
shawn
ο
lash
타협
sisters
침략자
불확정성
festival
fatima
##pile
##tsk
vegetables
##lore
1986
normal
satisfied
##ailing
amanda
wiltshire
collaborated
upton
stripping
911
페레스
##to
소대장
goddard
recommended
장위동
##lich
literally
diplomats
##uration
pivotal
halls
푸아송
회선
mold
EGO
mbc
엄연히
##馬
sealing
탄력
##ₓ
ا
occupation
trucks
501
오리엔탈
mortar
진리
dazzling
로켓포
General
지켜보
##hema
##imated
continuously
preliminary
satisfactory
##brate
집적
sloan
##cken
개성
BPS
##智
curtains
mate
cabins
불하
반북
federer
아무것
collapses
granting
communist
neurological
##eil
northamptonshire
crime
교묘하
semiconductor
전반성
reading
keepers
ᅮ
packages
유겐트
hugging
짜리
Ren
congregation
##oue
협약
제한
배설물
Simon
loyalists
파울
##under
치세
짜임새
##jing
tarzan
봉식
[unused674]
continuous
arabs
removing
##rave
mma
체득
avoids
jacques
souls
は
katie
[unused43]
256
1987
finley
madeline
로써
奈
roderick
panther
calderon
##parts
underside
[unused188]
해바라기
광기
##born
atoms
cardiac
문화어
wrong
안과
hereford
를
백만
empowerment
baton
furrowed
majors
smashed
essay
월
separate
markings
Imagination
bal
##dus
강금실
정문
valet
커지
ᆼ
cylinders
darryl
회전수
statistics
dried
石灰工業
disbelief
suppress
##vati
resurrected
paula
fr
dickens
##tive
##nor
##coming
relieved
기갑
꺾이
##ster
아차산
coconut
unit
[unused194]
##outs
electricity
grange
보상
[unused326]
##reus
진동
德川
명제
닿
밑거름
avoid
assimilation
macleod
crossover
aires
자의적
hesse
저장
liquidation
transports
레이퍼드
lines
fisheries
pressing
isolate
kade
jason
sparkling
gallons
관측량
고조
lucky
neither
betty
echoed
spend
##aar
리라
비밀
friedman
축사
wharton
반성
consequence
137
scenes
puzzles
동중
G
pins
flames
엔트로피
방위
di
[unused305]
##ply
enzyme
narrowly
풍자
other
##ʻ
[unused745]
tchaikovsky
dragons
accredited
그리하여
[unused737]
고유
forwards
[unused922]
안정화
messiah
hadley
fantasies
##এ
excavation
molded
직교
acids
fisherman
sweeney
centennial
nickel
beforehand
opposition
첩보
시민운동
##chin
freighter
hoisted
‘
select
clara
[unused265]
tool
baggage
harvesting
##ச
플레인
body
visual
##bee
blindly
volcano
temples
arias
timely
데모
아카데미상
nino
서력기원
700
##izations
대조영
drilling
amherst
squinting
관할권
known
말린
sequels
펌프
passages
lined
##vating
inheritance
afro
vicious
rossi
se
시오미
kinda
트윈스
forbidden
agreeing
압사
fae
1772
덜미
심취
guidance
[unused190]
fury
rene
geelong
밤새
jumping
rider
winger
adventure
umbrella
impacted
1943
1643
piercing
picturesque
##space
affection
어말
dissatisfied
[unused373]
auditorium
macon
estuary
neville
civilians
영화
성큼
구도
stricken
walters
아인슈타인
minogue
윤상현
conor
열왕기
한계
百科
historical
##野
트래픽
rf
25
비롯하
fi
dear
雄
십진법
zero
##oton
진도
결론적
##uka
백인
불암산
기능성
협상
benito
1662
FOX
denis
loudly
strip
탄소
##ppet
[unused106]
perspectives
thistle
added
포고
carts
chennai
practiced
rte
##copic
albums
combinatorics
실수
문
cesare
reorganisation
cortex
인원수
121
wry
howie
penitentiary
외침
제어
swear
conceived
ops
breaking
직접
동일
lavender
morality
38th
recruiting
용량
##ocene
rigorous
내전
intermittent
친북적
정제
오프라인
유니버시아드
아우르
충격
통혹
marty
사티
sevilla
##》
용
dunn
창당
##eased
ɴ
라그랑지언
어라
##ᅵ
[unused494]
nasser
godfrey
bed
##itas
hurting
competitive
aggregator
##strel
##zog
conjunction
철광석
pillars
overlook
##⟩
##rma
##enity
고이치
ambient
acquire
barbarians
englishman
살인
공과
##gger
martian
ioc
[unused483]
helen
temeraire
littered
espn
해역
표준
미래텔
300
##race
Atrium
##ւ
twitter
꾸리
곤
obstacle
luis
aryan
businessman
philip
서해
##∧
doorstep
##rgy
##57
낙인찍히
wholly
clade
##ulu
[unused330]
##udence
dona
오늘날
humming
foe
[unused187]
criminal
falling
change
##og
reconstruction
pearl
291
혼동
1992
##imov
병합
zeppelin
1763
1783
hannover
연평도
입구
dipped
[unused151]
공간
extinction
sensations
valor
Asian
viti
elias
lucian
↔
roma
bids
shark
1446
School
지칭
은나라
새롬
uniquely
prestigious
heights
##ca
##は
yard
과오
평균
##介
이부영
FIU
initiate
서해안고속도로
굳이
외가
1730
라
前秦
[unused597]
extending
지부
어기
sanskrit
offspring
baronet
substance
cakes
lock
군사용
csa
호베를라
인지도
##na
embankment
crept
excluded
##rry
integrate
01410
특혜
repealed
1847
대문자
인정받
업로드
erected
광고주
[unused343]
##jah
지어락
일대일
activation
##osa
##bians
##yte
arranged
중소기업
mermaid
잡히
weimar
dwellings
holster
napoleon
incoming
[unused650]
influential
messaging
rig
이익
친수성
pardon
handheld
제거
jonny
spell
1616
든지
긴장
지상주의
stella
##eno
PBC
탄젠트
tide
秀
skins
)
플랫폼
특급
각의
looks
##llum
암모니아
difficult
장비
murray
일사량
각층
assessed
교범
gambling
##wives
개별적
로봇
애초
hills
organs
건설
##anor
wasps
셀프
sire
baths
##ally
mcbride
[unused918]
대립
tha
accompaniment
##春
metaphysical
headmaster
문학적
sindh
파동
prostitute
sleeps
group
##{
781
apartments
##ф
pianos
굴절
싱어
wiener
[unused141]
불가능
##च
welles
거점
##lz
1891
漢字
썩
염화
##ghan
unsafe
희소성
punching
happier
악마
피의자
sienna
verde
[unused463]
[unused198]
악랄
개인적
알튼닥
##diment
crest
##→
riff
멤버
investigative
industry
transparent
indefinitely
haryana
##nza
313
simulations
내
charging
양국
winner
argentina
corrosion
thousands
ventilation
specials
부총리
pan
conventional
canteen
강원도
줄곧
carter
vacancy
animal
virtual
712
margot
grafton
중령
원수
authentication
litre
퇴임
신설
금화
임박하
join
drumming
nano
populated
NEWS
니콜라스
restraints
##世
짐승
grass
campus
leaves
원기둥
상비
arguably
praise
wide
autumn
특수
##´s
슈퍼스타
ptolemy
운명
cigarette
오클라호마
bandages
사회주의자
##lica
수배
wimbledon
crotch
ForMemRS
목
magistrate
##cula
##կ
purity
조정
사부
overlap
archipelago
##itative
sai
bullet
pang
grins
lift
##mart
문명
size
[unused495]
트랙
wehrmacht
堂
에비
rome
情報
가장
##rret
갖
자음
외래어
부식
1
leon
지표면
ferguson
camden
textiles
landau
73
wrapping
cooperate
privy
노르웨이
놀라
과연
pulitzer
License
사천
foreword
scanned
enamel
직설적
드라쿤쿠르스
##mounted
stabilize
apologized
군수
weakening
sentenced
순회
getting
britannia
수위
##rba
宗
shown
##ɨ
shielding
상금
교두보
델브뤽
failed
generalized
escalated
성비
accountability
브리짓
dub
deliveries
bengal
remembered
들먹거리
／
samba
moving
요시오
##lwyn
새정치국민회의
智
gentle
viz
harmon
albans
scientific
hiatus
limerick
judicial
루스벨트
정통론
##bial
segunda
honestly
##yp
cooperative
국방
목표
범죄자
appeared
[unused787]
alf
midst
씌
clinic
lowers
chapters
traumatic
economists
##pad
직간접적
douglass
보호법
snacks
척도
세이건
냄새
동창
녹
개조
afterwards
madam
둥글
스며들
설득
한승수
brushing
playback
solitude
해이
sudan
채식주의자
독자적
책임제
저금리
rainy
Trb
자리표계
##rd
##rth
綱
중반
낙타
yields
slash
infectious
[unused264]
intriguing
bedroom
externally
shrubs
য
도모
##rre
forever
manner
shane
quiz
고안
ignited
발생
nodded
differs
##itaire
이학
료유
ml
결속
leonard
chat
websites
green
ned
dortmund
파월
spring
[unused955]
##en
outstanding
pills
colombian
극우
choking
토머스
gaga
조제프루이
1263
최규하
kurt
수임
lawrence
264
[unused702]
，
##vn
reductions
게이
migratory
distinguishing
atlas
£1
대가
unfit
초월수
사상가
glee
만수르
baird
timbers
가로막
공헌
possessions
河
dupont
anatolia
評論
각각
gretchen
조정실장
##stov
kristin
declining
נ
original
fry
smacked
দ
385
반발력
##eis
통치하
tally
striped
stanley
gasped
##riation
republished
bikes
publishing
ni
##naut
writers
darmstadt
ʲ
solid
delivery
oath
찬물
앞면
##ade
shrill
##ako
##growth
크리보이로그
명목
volkswagen
대우건설
##crow
tending
consortium
agricultural
marge
[unused477]
늘어서
barack
lad
실권
dominate
coordinating
conspiracy
primal
sustaining
priscilla
차이
전화선
김홍업
excursion
탄도
회사원
nobility
폐수
mathews
살람
역도
omaha
패드
248
##ois
##baldi
illnesses
북동부
##kal
offer
[unused773]
gerhard
최오길
무인
1795
behalf
##icient
##verted
pension
충무
settling
peak
accurately
##orestation
write
rent
stood
facial
석방
##風
##meyer
forge
성취
participating
##zione
이해력
urgently
ت
methyl
hapoel
직예파
1869
missy
across
저온
가상적
immaculate
insults
evangelist
peking
##ido
interfered
##bm
clinging
nagasaki
조카
marvel
디터미넌트
automation
[unused638]
대덕
rebranded
전투력
##onale
prolonged
겐지
built
bloom
kei
instituto
mcc
densely
[unused777]
bunch
outlying
어망
##adan
cheerfully
감정적
wayne
accessory
화해
madonna
fold
frontman
priorities
huskies
digit
vikings
고분자
증명
regina
##dating
worked
##nded
gladstone
##フ
##rud
치사
TA
necessity
pays
거니와
interred
매시간
##ο
strategy
바뀌
researcher
libre
[unused210]
久
closest
update
threaten
pensions
sera
##recht
흔들
세아
sl
##inge
아래
결정론
애틀랜틱
valley
beds
서양
[unused127]
##ages
짝수
흥남
hailed
tilted
校正待
descent
농어촌
우익
켄
서울역
tame
##minated
toro
통제기
친명
chaplin
##eers
enable
creative
competitions
스톤
##dal
##oot
고령교
양모
을지로
epidemic
presenters
교착어
토목
외채
##oz
ing
네온
규준
처분
국가주의
jules
strongly
relieve
손자
비로전
householder
wastewater
크랭크
1918
students
addition
새기
사
개수
훼손
yorkshire
blowing
##lden
아돌프
##y
richer
fraud
onwards
##cate
qing
viruses
hamid
##ケ
##idal
betting
알파벳
inspiring
internship
threw
flats
철갑
##kshi
simulation
##gues
우군
보존
marco
pageant
미투
차관급
서예
packaging
축전곡
면서
應力
고정
가칭
탈출
##<
slogan
##ische
##gins
willow
por
refused
관행
barbed
ⁿ
##香
##hg
ィ
재무
favourable
직합
envoy
전수
##ias
paralympic
kid
contributed
수도권
maori
connie
장세동
허용
우편
nephew
##zquez
obstruction
york
solidarity
논의
cuts
결국
##ر
주체
##quent
tyler
##rius
[unused526]
reactive
실
mummy
브롱스빌
tradition
miserable
##ς
일맥상통
twisting
##asian
##elling
올림픽공원
케치외렌스포르
1868
1837
indoor
rangers
extensively
failures
calhoun
glenn
improvised
extant
publicity
[unused709]
재협상
배스
osaka
depicts
barrie
재판
서지
clothes
beverley
##cchi
하아비사이드
johan
copyright
texted
##?
sr
plush
싱
##time
고구려인
sufficient
flavor
ranger
achievement
intense
[unused350]
novo
포유류
scarlet
vocalists
스탈린
sells
kangaroo
seventeenth
divorce
dominic
substitutes
existent
attended
rebound
actresses
panzer
coincidentally
analyst
investigator
burgess
provoked
Robert
regiments
disguise
CPT
promises
connects
enjoyable
salty
봉하마을
죄
참여자
80
ivo
나이마르크
श
인하
##bha
종료
broadcasts
공준
##ham
crawford
implements
新韓國
鼻
##rly
구도자
wooded
tatar
주파수
sticking
rookie
gruff
heavy
현격
bouts
##sey
##rity
arrival
백모
구로
whales
신한공사
##政
납부
다름슈타트
argue
inventor
노릇
고속도로
돌격
활력
875
1913
난제
landscape
##iology
##arth
아트
활성
appeal
##rigue
bargaining
1530
society
median
[unused390]
hedges
vista
마이닝
grant
##lings
sidewalks
dirichlet
replace
logos
doyle
생물
guiding
국립
creeping
rhino
##quitable
##heart
선착장
dahl
riley
通信體
ballast
lacking
관개
삼국
holt
grossing
bleak
##ivated
think
##gold
settled
##adi
전통적
baltic
bedrooms
habitats
三田文
rows
Liebig
seniors
##iable
napier
복지
comprehensive
visited
이르
ve
developmental
##gno
vineyards
songwriters
hastily
함께
[unused504]
##nia
주창
extremely
하이텔
와카
최다
쉽
125
tabitha
proposed
슈워제네거
shoots
mausoleum
신외교
나이
posted
omitted
##ishing
##lon
blackberry
manufacturing
atp
##ulsion
권영길
강점
parliament
남대문
##ckle
output
emotional
##castle
[unused25]
436
##plin
뮤
##ffa
1857
alive
##no
여의천
테라스
##dr
gdansk
[unused46]
mixing
평생
##lidae
十六國時代
iftlii
flushing
schedule
##bla
유인물
파일
piston
로맨스
분당
incident
surround
辶
rwanda
bronze
##ᵤ
##ibility
bladed
##rcus
모스크바
말살
##lai
guest
soprano
##ira
whoa
[unused571]
安
taken
heal
hercules
친인척
wavelength
더글러스
뇌졸중
##ctive
##rling
대전
nma
continuation
##onne
끼리
seaman
roach
comfortably
강행
경위
aw
niall
tagged
details
whig
divisional
##cks
ก
responded
jem
저항력
[unused606]
##ators
畔柳芥舟
criterion
[unused250]
landmark
승부수
apologize
실명제
madrid
수상
##rta
crewe
crowns
움직임
putin
numerous
원본
romance
근대화
expo
통일전선
jarvis
flushed
##rogated
언제나
assassins
indonesia
eternal
chassis
산문시
협력
km²
prohibition
seize
##巿
spaceship
2050
korea
##jord
hamburg
stocks
[unused472]
[unused572]
espionage
ju
247
domestically
transferring
relationship
세부아노어
완충
##tech
##lux
visitors
sockets
적장자
에드거
kin
장기
ひ
armoured
indicate
##plicity
70s
insurgency
楊
schumann
##ס
처치
login
천연
안양시
강화
eater
[unused990]
1897
##kell
receipts
국가적
tri
criteria
천명
국제공항
장로회
herzegovina
sized
remarks
mirage
텐서곱
verb
##pose
policeman
trafficking
고기
imagery
latvia
dodd
blind
eva
simmons
##bb
ء
맞닿
teddy
부산
##holding
reel
##vier
enoch
정태
열람
야당
regatta
chores
##，
ʿ
communities
##erson
guidelines
putting
##55
pictorial
shimmering
美的
robbie
245
mahal
injustice
1752
july
##dridge
농성
aimee
gothic
owning
withdrew
클러스터
stranded
arrangements
wrocław
미스
chew
recoil
impromptu
소비에트
오류
fc
telecommunications
russia
cut
rays
coloration
isis
괴뢰
간선제
양성
vu
[unused914]
SSM
straw
##ي
each
instructed
lambda
clinics
houses
##uan
##mussen
##merie
ض
납득
278
proprietary
##word
좌우익
끓이
marian
brutal
##cel
enlisted
4
newsletter
statute
agra
넬슨
peeking
정비
태어나
sexy
복원
philosophy
springfield
지탱
brahms
ie
characteristic
symptoms
orchestrated
newscasts
분명하
occupied
saturdays
highly
predecessors
1809
혼잣
disruption
여객
illumination
끝나
playstation
[unused781]
##iform
방법
##cki
##sari
가공
방전
사유
##ities
yunnan
whites
[unused973]
cara
뮤지오
skills
rpg
##ents
교대
가난
remotely
envy
참새
1815
mcintosh
adversary
cullen
1403
vs
amazement
saxons
bout
미성년자
crate
##abia
'
구주류파
lausanne
드브로이
serene
comments
불황
사이클
벗겨지
towed
chained
minor
archangel
went
tablets
[unused24]
##ers
pinch
advertisements
minors
hunted
hitter
현지
##cliff
retrieval
anderson
decorated
peng
infinity
mckenna
add
원판
롯폰기
조제프
선택
formerly
clench
##antly
전임
##wig
##fo
##ie
beautiful
doha
구출
underneath
visuals
deity
[unused53]
raul
대남
painted
케이블
歌手
T
progresses
upland
##漢
phillip
heron
cholera
desmond
저공해
##ル
firmly
ponds
symbols
휴머노이드형
1680
contributing
convict
낫
##ungen
dismissal
개통
[unused782]
불의
##ア
입법부
요구
##vus
triangular
##ර
탈영
##itate
시그마
ordeal
donnell
strapped
##ᵍ
##ε
resolve
disregard
소학교
medalist
soviet
joachim
sergeant
##vial
문학
라는
중화민국
##cats
ara
laude
지질
##ब
##ntation
marissa
규범
[unused740]
may
faltered
타인
bram
against
battled
치료비
mata
합치
합천
đ
자명하
내부순환로
맹목적
##otte
검색
[unused342]
##ish
딕
##nas
##oric
기체
mac
##ᴮ
headquarters
2020
outreach
협회장
유역
riots
francois
아관
루이스
chords
offering
약가
##ganj
##tto
mention
##lman
connolly
tags
fresco
##stein
96
laughed
로타르
##ய
규격화
귀화
##cens
emigration
호선
[unused538]
##tique
susie
##utz
두루미
inferior
두세
[unused404]
감사
guerrero
난
baxter
speaks
risking
fitness
종식
문자열
[unused573]
중석기
wally
##get
whereupon
실험실
bao
GRDP
db
ـ
지도부
freeze
dhabi
[unused539]
stroll
##ctic
rune
unification
leyte
바다
atomic
slam
돌
[unused930]
Journal
quite
mario
railroads
먹이
southampton
garry
exclusion
astonishing
falkland
##ration
ي
하숙
빅토르
중량
몫
petitioned
하우스도르프
[unused540]
cattle
인디고고
pm
postseason
gurney
##ikh
annexation
##rip
서열
수사부
smartphone
##nche
##)
떼
mutants
sheet
sikh
gaps
##kovsky
tensor
빵집
hui
blanc
dreamed
netflix
1974
orphans
inauguration
##sier
faculties
##ros
##〈
ran
starbucks
##戸
##bird
okay
##un
inward
##ield
정리
193
lab
##oed
그물
##neil
실증적
동향
리비히
정권
Fourier
프리미어
staircase
북서풍
등록금
blended
england
apply
blaming
성능
수량적
autism
##alla
##bell
그런
##chemist
scrolling
sixteen
아프가니스탄
root
specific
##ime
[unused710]
bomber
rammed
천호동
maui
단거리
loch
audi
등록상
천하
##ʻi
endowment
##tism
benfica
축제
##oked
##drick
heavenly
realized
mule
세로쓰기
##iva
개항
grease
draining
순실
mysore
range
성문법
letter
tangent
311
친
physiology
paperwork
earls
257
fife
國軍
chilean
##ux
일원화
리우
[unused424]
[unused721]
별세
straits
kuala
sp
sounds
piazza
routine
mercury
measurement
bromwich
회로축
후보자
descriptive
민주당원
malaria
vanity
##imating
[unused110]
편곡
concurrency
meadow
abdul
한정
electorate
behaved
eyed
rourke
steppe
##can
경색
위촉
mating
융해열
##vy
clown
1950s
보험
microphone
alert
ancestor
방치
양수
flying
[unused608]
힐
능동적
든
Of
sincerity
복희
anybody
##tier
cong
pa
rochelle
옆
①
회피
expansive
embassy
feels
무지개
destroy
associations
jacqueline
##ily
hulk
meta
she
corporate
ALTRAN
##hard
439
##codes
investigates
ն
helmet
margaret
명물
말년
##roving
플로리다주
氷
lone
##ash
ming
충성
[unused446]
[unused268]
estonian
보이콧
[unused274]
cloudy
curtain
간혹
##roy
화물선
peeled
plucked
nelly
mazda
##nai
##esis
추천장
»
hawke
cameron
##iation
partly
apt
spike
horseback
카모프
조공
##ups
장례식
nervously
##ibe
##合
hang
##ぬ
beckett
188
cos
paddy
육체적
puzzled
shoreline
##¤
##劉
##rani
hello
##iji
uphold
barony
quit
리더십
liberal
208
ported
enforcement
limits
creators
indian
和
dade
##bruck
kong
1870s
lives
field
자
에티메스구트
조국
cabinets
wherever
counties
yoko
mused
ammunition
1770
새롭
여당
okinawa
제출
pursuits
intern
jen
diversion
지배적
forrest
##sen
simon
##tee
plunged
##sop
##β
march
개막전
최고치
invariably
과
##folia
##ensburg
barrels
eliot
알칼리
syriac
spanish
[unused658]
##モ
학업
mixed
bluff
pioneers
##wil
되도록
joao
responsible
##edance
##hy
politics
만큼
maxwell
reclamation
hostilities
연속
##watch
CBBS
nunez
혼자
##ffie
nationally
ph
isaiah
depart
원형
##rina
copy
1544
절이
familiar
yang
fungi
preferring
amino
머릿기사
episcopal
redeveloped
##ttal
추징금
의존
sinister
practical
동력학
enjoys
cubs
epilogue
켓이면
구입
[unused146]
pitt
nixon
##igate
소형
그만두
2001
licence
explanations
chanting
sly
appleton
인위적
ashok
referendum
부수
empress
apollo
candace
엄벌
burial
friars
동양화
986
bedside
raiding
proven
headlines
of
익명
[unused340]
afterlife
squeezing
##stellar
당국
반입자
occurs
locke
relinquished
함석
아에로플로트
그녀
specifies
##pac
ransom
psychological
[unused289]
hendrix
rectangular
##ders
provisions
farm
guy
녹음실
왕국
미국
torah
전황
vocational
eps
complement
시유
##gre
경선제
demolition
relocation
##dh
##cultural
생각
마카오
rituals
Kavakl
storm
wanted
knees
cha
knowles
특별
##ray
straps
Xle
용어
household
139
2019
얼마나
##shot
스텝
officers
everybody
pascal
its
honest
stade
snapping
þ
database
##taking
hardness
shards
反
bayer
묵인
hate
##hawks
kaiser
hood
drug
##uated
winnie
hawkins
##о
skies
일본
##●
##md
##lva
notebook
utilize
glove
활약
기념일
박물관
사라지
annexed
auxiliary
building
##itte
celebrate
연결
twelve
catherine
슈퍼마켓
marks
레이블
swearing
insertion
structural
ᆷ
reservations
capacity
부임
기차
betrayed
친분
성서
동적
greatly
absorb
dartmouth
appropriated
straight
##erin
##ising
compartment
jelly
##heim
[unused812]
depiction
solved
ע
spinning
bradford
tho
로버트
mont
당무
dayton
##¥
국립공원
비정형
##coat
overwhelming
합격
Rose
grenade
compact
superintendent
statements
고이즈미
randomly
##rter
ipad
코시
Adalet
철도청
severely
pereira
초전
hispanic
통계학자
鄭泰仁
tallinn
rated
diaspora
세간
administered
calabria
거나
대검찰청
인골
fascism
faber
swirled
梁
전반적
회의주의자
hydra
유기
카복
물려받
汗
어린이
통솔
equality
aspiring
##چ
1805
##cence
전말
desirable
농법
외항
bust
plunging
오랫동안
##li
과언
aux
spain
telephone
대성
regimental
havoc
shaman
neighborhoods
saxe
기능적
##ulton
lenses
쎄
인근
terribly
controllers
parent
greek
explicitly
鈴木三重吉
№
zodiac
학도병
export
LP
##ward
flooded
decrees
creaked
##ո
우애
nave
phil
reign
tammy
ㅑ
빼앗
Committee
johansson
[unused443]
##ex
notoriety
운동권
allotted
agustin
encyclopedia
preview
앤더슨
반박
question
meanings
##mming
얼
sailed
침체
হ
fired
angus
urging
##straße
semitic
superior
inserted
##agne
결과물
spice
##nne
dispatch
gustav
grupo
monroe
joshi
hancock
keller
##suka
##uder
연령별
교세
성철
##健
소거
터미날
organizational
대비로전
soloist
supporters
aubrey
항도
swords
##立
##point
군함
##oran
##stand
##鈴
determines
43
ID
downhill
##神
nigerian
식견
hurdle
樹
sectors
악보
dwell
modulation
wicket
rachel
bu
##ᴰ
##ku
daddy
##nig
only
populous
물밑
##ens
successors
thrown
pasha
##pani
英
wrinkled
swelled
rocks
asylum
defining
行列式
명백히
터지
또
교직
[unused487]
온난
단독
옹호자
talks
다시
little
뒤쪽
wore
측면
내놓
fisted
782
##rai
##sta
furlongs
독보적
breakaway
초고속
기구
kannada
런던
napoli
실수체
##hell
selection
부
국
paranormal
##reate
botswana
joan
injuries
2007
chose
maru
millimetres
age
vest
manages
체내
마그네슘
##kor
##b
courts
songs
fluorescent
디렉토리
원산만
conveyed
##entation
##if
월식
오디오
동학
feat
strewn
##a
[
ほ
##dim
whoever
topographic
줄줄이
ɛ
슈퍼컴퓨터
fed
happening
석공
입점
포항
minions
zimbabwe
##hara
구장산술
theorist
명예
ritual
ab
veronica
암흑기
rid
syria
정하
##ev
consume
implant
진흥
니콜라
신천
meade
학술
donor
robota
##原
inappropriate
강팀
##vate
academies
생물학
commission
clamped
목요일
조선인
성벽
aeronautical
ㆍ
##ゆ
clark
stabbed
병진식
physician
factories
빌딩
오미카미
depict
1908
rely
광산
サ
performing
오리기날레
풍부하
훔볼트
[unused771]
##eau
공학용
##bner
migrated
harlow
##inus
OS
##غ
승격
[unused111]
진행자
garcia
comedic
feature
##oza
brodie
us
climatic
##ص
##ming
ħ
viaduct
appendix
graduated
성질
할인
symphonic
werewolves
reproduction
peterborough
december
dispersal
보이스
서울대학교
etc
lengthy
fines
미결수
independence
##ista
disk
fewer
celine
탁구
titular
에어
節
##chee
alarmed
soo
preparatory
refusing
serviced
##ition
soup
weekends
횡포
705
piles
marne
여인
에게서
ter
금호그룹
시립
virginity
차기
뒤틀어지
도리언
silver
females
인혁당
영국
다방면
dismiss
加速度
installed
somehow
ely
##hini
Langenbroich
감리
fallout
geraldine
gases
전하
ա
##bie
Modern
enforce
##ि
youngest
cbs
widening
##lund
장제스
2nd
[unused76]
##dler
##ส
banks
##les
[unused747]
##dled
suffered
buddhism
hand
endure
beech
200
##դ
plaintiffs
ས
project
해방
사용
[unused202]
한강대교
[unused789]
formulation
midfielder
75th
stacked
##ald
sort
인재
vicki
초대
claws
경전선
color
instantly
##bourg
rec
탄수화물
##gai
scares
급기야
tipperary
nightmares
eyelashes
java
오래전
##efined
reducing
##neas
##bush
forerunner
rasped
controlling
viking
flanders
gdp
〉
drops
irish
whitish
programmed
pajamas
nutrients
##hall
patrols
printers
##tled
비산
##oxide
##ize
핸드링
##bbe
##王
포터
struggling
동급
청년기
cannabis
주윤발
담
ruse
severe
정경
per
his
순
실험적
##খ
propelled
punt
unpublished
sure
초전도체
heavens
개리
customs
greece
[unused846]
##horn
apocalypse
##nated
##部
pirates
길
campaigns
은데
retrospective
rigged
유사하
lit
##yria
brody
316
商
幸
연봉
혼잣놀
아나톨리아
braced
##tem
군법
토기
노인
결의
squire
affected
mother
bathurst
cells
압력
eastwood
archduke
싶
예측
2a
brows
misty
dieter
콤팩트
충족적
##yang
promoted
jena
products
benji
새로
rotterdam
drifting
vans
examples
richie
th
configured
기쿠치
midday
schuster
혈맹
luxembourg
半音階
coincidence
##torm
잃어버리
침공
excerpt
증발
order
discovering
조력자
suburbs
8859
listing
##rva
자연적
1957
보완
intercollegiate
⁄
first
1692
operas
전문가적
jalan
##50
누롤
chinatown
edo
시베리아
genevieve
ethiopia
remained
재앙
인파
##ᅲ
特別市
ease
primarily
##eb
reinstated
튼튼하
jaws
benefit
쿠데타
k
obsessed
comparable
drilled
credibility
자강
태극기
conscious
조건
석고대죄
personnel
##hood
병렬적
국제형사재판소
266
‖
금액
예약
flavour
갤
chi
격하
Haldane
dylan
journals
ny
同値類
##lls
전공
이상득
[unused959]
##tsky
letmesi
##ho
개발도상국
muted
andrea
1679
encoded
Max
##uation
myth
blockbuster
brothers
1699
148
substitution
##sett
낙찰
##py
mutually
##ffs
outstretched
tormented
[unused718]
##wi
shamrock
환담
소셜
부적절하
사르
coefficient
gupta
taller
slit
##oof
##how
heap
##ytic
##fk
[unused374]
령
acknowledging
조리
allen
경과
dissolution
blunt
터
puppy
bourbon
##eman
kicking
maxi
duke
protocols
dazed
이용자
시국
chromosome
credit
Buz
biodiversity
##chrome
scramble
spd
돈
singleton
맏형
행정
푸리에
cy
[unused60]
##mers
大毘盧殿
cia
waterfall
부대
170
다만
can
masterpiece
sinatra
殷
대중문화
스
americas
overhead
cyprus
photograph
later
Ward
##mail
detail
##itia
정련
colonists
thickness
lumber
subsided
##夫
에너지
custom
##storm
##jos
legged
chancellor
율
accelerator
ba
samuel
tibetan
##ods
xii
flows
skirt
wax
##uding
richmond
signal
농부
렙톤
기인
안산
began
fran
racers
##wear
missing
toxin
glide
교향악단
[unused480]
362
nicola
slamming
촉매
제철
hug
점거
exploring
observable
blurted
remedy
느냐고
thailand
have
한계령
##jured
actors
integer
paige
##oko
product
영국계
governors
경동
그치
측
폐지
운동적
단체장
revised
##cede
힐베르트
bai
ho
##vian
CJ
line
wives
collaboration
애니메이션
##ος
##owed
기여
wasn
기원후
##claim
introduction
기사
週期律表
initiative
앞두
advocated
confessions
실정
enormous
##gel
##gau
大德花
##chs
차트
[unused469]
이성계
방해
experienced
brook
quintet
쾰런
##nty
조현오
evergreen
1550
ɒ
##llas
armed
orbit
meg
ㅿ
overall
preservation
##dalen
##ging
1888
warsaw
stair
[unused704]
regulate
catholic
suppressed
[unused455]
plaque
198
employer
항성
prime
*
일시적
recipients
უ
인공위성
공표
monday
mosques
장쭈어린
brackets
완벽히
scripts
science
ﬁ
단초
삭제
κ
농협중앙회
노환
therese
lived
volta
길쭉하
친구
超越數
kahn
bin
irvine
thirty
alam
rippled
relations
chase
barrett
49th
##松
Terminal
shivers
1705
경사
##erence
추격
##ater
Sec
천장
portrays
활발하
수칙
지원
인생
별
은
bilateral
france
older
##ula
서식
##aint
terrorist
bran
##ー
지급
장서
골동품
##rup
수염
탈냉전
ר
certified
surname
manuel
##gus
판세
yank
공무원
물자
couldn
recovery
##grad
병진
motorcycles
페르미오
##acion
attendants
gasoline
샌드위치
smithsonian
jeopardy
rings
committee
concepts
royale
CONNECT
remy
##rien
attractive
examine
쾌적하
앨런
bahia
곡선
##rmed
remnants
독일인
5th
earning
독일계
야권
paisley
##sul
maker
수학자
jealous
여덟
defender
해석
##rnik
이탈리아
##ⁿ
accommodation
wallis
companion
변호사
[unused565]
##hett
체코
itunes
##bly
시각적
beating
fujian
recognise
##uit
hereditary
maestro
일간
일제
식당
##saurus
poznan
roadway
##ying
王
기하학
##ه
해저
win
움직이
wexford
여단
studied
vessels
drafts
dong
stalker
yates
ha
batch
##heater
yielding
vibrations
영향
xml
filmmakers
frames
garner
talk
encouraging
quarry
squad
consort
선수촌
[unused699]
nm
뛰어넘
zealand
better
우연
##dication
표기법
##dilly
caused
bonn
##wife
아가미
tinged
famine
1400
justices
핀
strands
puzzle
echoes
uhf
belgium
논쟁
[unused580]
slightest
georges
willard
특허
파이
지리
antigua
깜도
optical
conservation
skylar
깡패
아이소토프
관성계
christopher
expresses
quiver
exiles
理容
watered
기념
whereabouts
빛
bosch
pouring
롤러
aiding
freedoms
해변
timing
doll
cello
브라질
임용
austria
명료하
국민운동
합집합
무력
newsweek
지휘
wryly
[unused328]
television
worn
summers
capsule
물어보
##ђ
지지자
##ify
앙글레르
가톨릭
nikita
세타
feedback
hearing
##;
##zier
급우
##sily
대법회
고지
ㅋ
databases
U
era
guantanamo
really
1903
eurasian
##nts
투르크
바이
whiskey
취조
세칙
joaquin
여군
limestone
야포
শ
rae
antiquities
피검
##che
sensing
##ah
나머지
화
stony
starring
grounded
##µ
phone
건조
hopping
챙기
##生
ideological
##west
outta
tall
증설
##vre
기원설
⁺
최종심
특징
humour
##omics
emphasize
powerless
unpopular
clerk
metabolic
튜링
자유시
[unused847]
yellow
##ccus
contestant
alternating
stones
저항
thieves
스펙트럼
인포샤
pursed
초고온
##dio
구단
##anto
후미코
macdonald
거두
맞
통합
nepal
privately
##umatic
##cton
토끼
carbonate
XG
brandt
vocal
[unused958]
##ppel
educators
VTX
testify
lasers
##ᆸ
popcorn
landlord
winthrop
시간적
barnard
로마
##ך
##tania
국민당
bartender
understood
weigh
##ի
dislike
rt
brightened
법전
confined
farms
철수
jing
##icate
##ogan
수험생
whispers
sighting
lottery
jump
사이언스
동포
1998
사망자
앉
##39
##ᵇ
##yan
삼원색
except
체계적
가요계
선정
##48
24
strangers
morris
##ude
mined
총괄
훈련
neural
malibu
avalon
enclave
##dara
mint
heath
서적
gma
##ى
혹평
yells
복사
compatibility
##runner
manufactures
빅뱅
韓流
그대로
les
##─
marriage
harvested
batter
approve
briefcase
diego
다분히
2758
fabio
babylon
edmond
purposes
1620
##ren
##ila
conduct
##tangle
[unused756]
量子
mistakenly
chest
gemma
rust
beit
프로젝트
##gar
및
privileges
론
해상
arriving
embryo
vinegar
demo
[unused418]
activity
reflective
elephants
chairman
웃음거리
potentially
invested
thus
cheerful
residential
신숙주
flock
schizophrenia
##als
##lag
foo
핵무기
browser
[unused813]
㎍
poked
taxpayer
shack
[unused119]
여자
퇴화
제공
fireplace
##rg
oro
possibilities
ₚ
##swick
일반인
airplay
czech
남
assure
disadvantaged
15
pianist
f
fearless
cosmopolitan
##qing
부랑자
buddhist
き
unacceptable
##ds
shipping
juicy
col
cox
##rada
난민
snow
donald
1934
seeing
muir
지레
donations
goodman
kyiv
respective
가정
선거법
##cea
accounts
ai
형님
필하모니
serpent
##ably
marriott
cinematic
옥죄
09
##hetic
illusions
물결
searching
yer
mw
eclectic
braun
악재
sabha
ா
king
ˡ
인연
##ow
rats
주검
uploaded
カ
지휘관
potion
##anda
확인
asking
##kim
1760
##erty
subsidiaries
에서부터
perhaps
patty
wait
prep
secondary
해법
―
나이프
수자원
##esian
arabia
fated
rushed
##odies
##corp
[unused189]
[PAD]
eighth
observers
screams
지명
attacker
뛰어들
한국경제신문사
sway
straightforward
cum
오리쌀
lou
104
accumulate
태풍
개체
presentation
들무아브르
nanjing
warped
carpathian
turner
##ay
##zing
species
laurel
mein
사법권
eponymous
abrupt
전이
planck
system
ieee
##jit
ken
dorchester
어로
브이
operated
점
switch
역전극
register
##xing
ধ
zur
권유
대제
white
nam
시속
holm
튀르크
tel
catastrophe
416
sciences
cornell
vip
congress
##arm
burundi
황백현
timor
##ivism
waited
event
midway
생명체
##uously
toured
##男
devastation
manifestation
dynamo
stole
goddess
crescent
151
slavery
기원
ordinary
ked
금동
crypt
##hoe
reorganized
이력서
승려
sword
hem
선대
찰흙
confirmed
instinct
격찬
merged
justine
ruben
difficulties
작사자
wentworth
environment
##don
##ₙ
meeting
rivers
pants
중심적
프린스턴
소련제
sole
##chenko
inmates
알짜힘
hope
highness
caliphate
depths
omega
[unused758]
Political
금나라
preparation
장
jess
moods
에른스트
ringo
mcdonnell
burning
경질
vigorous
포논
under
스스로
남방
trim
산간
산파
negatively
payne
noise
tends
##gut
[unused314]
aside
eligible
boulders
가
stable
로베르토
1789
##iques
한명숙
고분
##hiff
야금
##orin
electric
둘러싸이
상시굴
bruce
alexei
courageous
vamp
get
##am
metadata
invented
imported
본부장
##anger
determined
uganda
attachment
restrain
##lan
이날
willingness
pepsi
꼬마
comrades
##rable
nap
건설비
##uh
maya
##nce
playoffs
감소율
도덕성
с
functionality
독설
draft
손지기
anything
su
leah
페이브호크
##umen
ages
gravity
continuing
8th
##tructing
bad
argentine
salad
노원구
프락치
제안
cheshire
relegated
ac
크
kendall
구축
sanctions
대칭
belongs
전략
##icular
Normal
weren
uttar
oasis
크로마토그래피
중단
##oids
airlines
stance
王道
통일국민당
주로
출력
고양
정신적
rowing
prussia
simulate
##86
risen
analog
마죽
집중
denying
cheyenne
여유
주목
pillows
ج
龸
롤링
##अ
cortes
##frid
noir
tease
고무
##tec
convinces
wigan
##ব
evolved
pokemon
martha
predatory
murdered
위헌
##enay
불상
collapse
광선
well
unused
##ρ
river
telegraph
watering
역술
영등포
태국
급부상
miranda
ape
bodyguards
새로이
wadi
77
좌변
대학생
madagascar
pee
regulated
섞
ham
##ter
dorothy
fares
##economic
before
prentice
준거
반등
기작
길짐승
mundo
앙변
migrants
makeshift
facades
camp
percussion
globalization
doorbell
위협
MKE
[unused474]
fish
ː
receiver
dress
##shima
tom
folly
pt
sweetness
coordinated
싱가포르
##rot
classics
깨지
특성
gate
aziz
##bone
1751
offense
josiah
reunification
դ
turkic
##iate
음식
bar
##ou
authors
나로호
patna
discover
Foundation
coordination
##☉
sponsors
mans
##張
광대역
judge
95
본회의
강성하
워싱턴
turin
##bor
##kou
##उ
하지만
male
teasing
barrow
##for
1938
pradesh
생애
pumped
##gul
근무
폐렴
##zai
syndrome
sleeves
ok
adds
thanking
stages
팀
[unused397]
goin
##ₐ
##lou
phylogenetic
recited
autobiography
친미
구글플렉스
[unused970]
fought
[unused87]
coin
small
동창생
탁월하
##oja
유리
연주회
[unused887]
sahib
[unused881]
일부분
choreographed
효소
assessment
TS
##iled
investigation
consular
complain
westfield
dead
곱셈적
lucie
sky
HiTEL
blown
crouched
실질
제요방훈
과부
institutions
restrictions
provinces
supervised
cleric
brian
##br
hitler
allegiance
wise
upheld
thayer
##』
불평
stationary
ظ
forged
이에
##puram
중력
로런츠
##川
º
1086
제일
confirm
istanbul
##urance
탓
##uppe
chewing
비정치적
dept
gunter
easier
keenan
drinks
##ience
정보기관
바르마
원문
dormant
##holes
amalgamated
##woods
불확정
unhappy
carries
##idia
##sing
##ples
disastrous
방탄복
##ʀ
호기
scarce
흡열
detention
##long
모자라
residues
이코노믹
celestial
시티
investigators
##ต
健
[unused713]
세우
##rga
raoul
##hein
##acies
##rmin
waived
choreographer
##aton
area
mustered
##bine
sarcasm
##ᆫ
dangers
æ
oregon
occupying
##fight
##cuit
lina
dal
trams
100th
bacteria
인과
영어판
보정
##tya
formats
norte
delightful
가출
도어
절반
최동열
february
226
##ome
화창하
후반기
blackened
henson
reciprocal
karin
wrought
广
raf
choi
infinitely
전망
lengths
hiring
martins
mutual
힉스
225
bharatiya
유성
총알
tug
javier
maximal
gig
craving
scouts
suggesting
##fine
금권
[unused177]
답전면
노령
plague
붙
exchanges
##and
ud
discovery
ae
##⁹
극장판
##vable
호구
##ick
anyway
isos
sydney
montevideo
민족주의
treatise
dan
several
##訁
휴식처
adjunct
whimpered
##華
ivanov
승강장
발령
track
،
1844
houston
##cology
##ix
brooke
##ण
bestseller
karim
소말리아
reigned
내정
forceful
어른
namely
파스칼
bus
dwyer
footprint
곡면
이념
##ello
unto
suns
staring
ɡ
van
##eter
미해결
평행
tributary
cornice
경의선
정보부장
이온
dictated
북아현동
confidence
spin
곁
##ণ
공유
vivo
##nent
1644
repetition
rohan
analogy
stylistic
[unused621]
rm
preoccupied
##boarding
1925
쌍곡선
agencies
bothering
yusuf
[unused784]
highlights
religious
honeymoon
자격루
베를린
새판
convictions
spacious
encoding
조문
knit
imagined
random
오일러
machinery
색상
장래
manufacturer
배급제
sniffed
한테
waivers
한겨레
イ
산소
philadelphia
internal
漢
updated
간소화
관장
남녀
캐롤
formed
상고심
fusiliers
unease
strangely
남부터미널
troubled
아시아
encounter
konrad
cumberland
##pine
crystal
middleweight
##ulus
proponent
통근
##hurst
romanian
gotham
##nified
1915
##kha
[unused864]
karel
ripley
undead
ј
fred
##logic
dung
재산가
낙성
what
분해
happy
朝
nominal
##ergy
중원
winter
창시
##vill
물리량
humanist
innsbruck
##nni
man
##zation
다운
pods
팜
##all
크리스탈
hall
작사
Maxwell
国
고착화
송파
daisy
financial
정점
[unused242]
enjoy
##elle
design
귀중하
disapproval
Saray
lent
방문
ocean
##carbon
shafts
레이몽
ernst
위치
kenji
bellamy
志
코앞
immigration
##ᵒ
rubbish
[unused10]
Remainder
##owe
ukrainian
stick
indicates
405
空
dedicated
수료
##umble
du
960
intending
궁술
adjustable
市河三喜
[unused297]
citizen
dos
교사
eurovision
##qvist
역적
##idge
롭
46
satirical
tran
citizenship
##«
##ately
session
able
수량화
예술인
holy
피선
crumpled
착용
alfred
flaws
##nn
RP
을사조약
hasty
미학자
plates
##rize
로
ச
convergence
♠
brit
[unused714]
흩어지
평년
blackpool
##sation
mil
법당
consultants
탄천
무질서
##my
playful
##nesia
개헌
타당성
스럽
exceptions
contributors
기동
chu
##yon
##yen
slow
hanover
보스니아
퇴역
near
marx
gladly
제후국
분석가
overtook
robson
광자
##hope
varsity
britney
하우젠
수요
사용처
##kit
반도체
josef
##hill
풍습
ngos
##of
gestures
1653
[unused555]
680
hbo
군대
조상현
mira
surged
blinking
러일
sixteenth
##rove
gora
[unused623]
증여세
[unused124]
[unused802]
उ
bernardino
advising
고체
dies
flaming
나가사키
tt
바라
감독원장
ว
ballads
status
gymnast
hindus
##ropriation
mystical
favourites
ₐ
기각
##lined
morgan
jazz
elton
efficiency
아날로그
breaths
네이버
pointing
##odon
additive
살포
##མ
sponge
marshall
합
brett
우측
oxidation
subjected
##board
[unused347]
twinned
sul
##真
vivian
##wt
소수
반면
fine
voiced
##ulf
수능
[unused590]
gentleman
##wc
cranes
맛깔
##dos
weaker
##tara
[unused607]
##ᅢ
murmurs
##nc
할크뱅크
##relli
botanist
##kis
twilight
낮추
μ
chronicles
madison
##ried
value
끊기
납
필체
twenty20
own
newbury
##ians
scarred
##ico
nectar
##ractive
##hak
메테
##rno
열매
together
melting
복제
hence
고위
multinational
파이낸싱
##zos
비탈
증진
pulling
##ksha
##щ
long
동인
unnatural
##ии
플랑크톤
л
respectable
브릭스
##lf
interfering
doesn
dominated
거듭
재배
박해
송진우
음향
영화사
##－
townspeople
trembling
##49
legislators
##lish
hickory
yuri
spores
eager
[unused821]
steamer
adulthood
밖에
commandos
##eration
##bl
남용
waters
supernatural
six
shin
laurie
clerks
##水
[unused663]
종전
가끔
Roketsan
##к
discussed
숙청
nesting
toast
cans
觀象監峴
##systems
으로부터
morocco
##chfield
흑조
반원
165
분신자살
고지대
sat
다이슨
박근혜
죽음
straighten
noon
markets
산먼지
##nagar
계획
##lene
##ister
awareness
##rah
elgin
250
circulated
trey
기숙사
striking
elegant
hammersmith
cellular
indicating
자외선
dina
강박
rotating
pressed
ally
marijuana
##cule
밴더
torpedoes
amateur
pam
vi
strange
jTel
빈터
ை
throbbing
jakarta
katherine
petroleum
sweep
##line
growls
m²
iq
백서
특이점
signing
enigma
##rn
raging
dna
빌트
붙이
sugar
유로마이단
surroundings
scar
hilbert
bush
일격
boeing
##venting
전화망
robust
alter
obtained
사찰
다짐
sans
##cius
walked
finer
ot
맺
부역
ode
ᵒ
동
organise
sobbed
##nett
theo
hectares
비율
[unused548]
libel
금속류
Electricity
implications
crusader
##འ
interacting
Gmail
##₁
##gly
diffuse
와
boroughs
latham
##gis
feeding
선교
BBA
tian
scarcely
ego
##stick
준우승
##ensis
##ovsky
신학
弘
球面
되베라이너
trooper
extracts
결론짓
무교
##ogo
흘러내리
개업
inspected
lehigh
roi
##7
방재
heirs
reluctantly
##ctric
⺩
locus
hostile
lakeside
캘리포니아주
의지
grille
1833
##eral
canon
사도
##明
INFO
##．
##ₒ
##itzer
fuse
revenue
미역국
syndicate
##ances
포구
pleasure
리안
dynamics
warp
이내
bend
carthage
georgie
sharing
cunning
pushes
충분히
1723
外積
산물
##wski
Gould
shanghai
주원장
arnold
perrin
113
[unused928]
visas
missiles
후리가
associates
합의
geared
##ugh
청일
추출
fourteenth
ruiz
berkeley
sally
통속적
ghosts
sculpture
탄원서
barron
시계
keating
smelled
richardson
slaves
tamil
소숫점
atom
상당량
suffix
분석기
defiance
현대중공업
dungeons
억제
입맛
shelters
challenging
##и
訁
소프트웨어
devon
spectroscopy
part
docks
fulfillment
강점기
⁸
stint
기치
여객선
yelling
station
updates
jeanne
tres
disbanded
prediction
lodging
segment
stone
viewing
VT
인현
에디터
팰로앨토
cancer
##י
결합체
판시
ᅵ
pak
프로토콜
properties
##sei
##lto
##ows
버무리
density
delaying
generations
persia
##‡
ellington
buchanan
pharmaceutical
대우조선
cursed
discontent
죽이
charge
moths
Gkek
prosecutor
1989
##gation
##oning
접근
86
rites
##feng
bolsheviks
대화
estimates
couple
insides
##vna
mark
unstable
퀘이커
공산당
richly
entry
watching
mantra
mohawk
##ved
않
union
##ingen
greenhouse
verbal
반군론
≠
bombers
ே
나아가
prisoners
도회
편차
중년
look
1600
ci
abyss
씨
stayed
고립
squeezed
아츠
평화상
canada
울람
[unused940]
memory
aid
동서울
activate
flora
##ニ
roles
56
disappeared
licenses
scrapped
outlet
trance
맵
jenks
유례
闔閭
abolitionist
identification
syrup
cadet
입체적
##公
황득순
albrecht
serialized
風
##ston
polo
이심률
ji
conceded
t
##а
allan
freddie
busted
##rz
곤베
고초
klein
behaviour
##ism
호의적
？
##hi
playground
##π
sexes
모이
불편
possession
McGivern
creole
couch
1658
ferry
유즈노
gil
mvp
##ece
reverend
donate
fortune
keeper
결사
exquisite
calm
성원
cambodia
ゆ
schultz
explicit
coat
charlton
jae
brenda
북조
ㄴ스
데려가
brother
##force
보다
generosity
ornate
출산
penang
횟수
굳히
idaho
기술자
saloon
요하네스
multi
leases
##rill
framed
natasha
masters
illusion
한자어
로빈슨
Agency
hussain
after
performs
##gled
zion
1924
당선자
불안정
jamaica
off
consistency
실바
클라우지우스
결정론적
연기
loft
unicef
쏟
프라우다
connor
mora
optics
##ail
일으키
기름
욕망
공용어
장담
##gh
lifts
헤엄
recognised
branch
interpret
대표부
kilometers
##ddled
roar
defendant
##jian
가문
출고
farewell
멕시코
출발
separation
[unused171]
음악회
singing
피탈
swaying
정몽준
관영
##cap
dea
streak
##kr
떡
absurd
##kers
awkwardly
issue
u2
possesses
engraving
민주적
±⅓
attention
올림픽대로
ɣ
planners
141
궁예
marc
##₄
##х
언론계
회사
package
indiana
##idon
source
lips
##jan
##tr
방송국
재야
beside
##cratic
fulfill
##ᅪ
불러들이
actress
lucas
##mbre
arrests
다키노가와쵸
someday
kw
designations
##uria
아라비아
일관성
defunct
고국
weapon
physicians
gardner
wrote
레이저
mastered
사키
[unused429]
stars
picked
##ℓ
approximately
anglican
beau
##jer
콤소몰스카야
calculation
##rons
##wl
superman
##cor
clarkson
exit
##%
##om
##io
##pool
솟
[unused4]
boarded
운영
1920
平行四邊形恒等式
afb
마하
ய
slack
정량화
buffer
padded
authorship
양반
vaudeville
##ught
practitioner
##cko
대면
calculate
lagos
러시아
arrange
가계
च
##cation
creature
정거장
산문
##hong
가마쿠라
constantine
꾸준하
[unused298]
##cona
散文
후렴
defeat
수감
##ᄐ
페르마
머릿글자
agitation
지난해
부기
[unused33]
olympic
##ub
cromwell
sponsoring
피디
limb
컴퍼스
bee
콰리즈미
trout
##mute
##gard
##nova
modular
피하
##gang
recycled
##dog
경유
##楊
[unused322]
##ια
marylebone
war
predominant
##chan
연분
제러드
中華人民共和國
##olic
사본
zimmerman
후보
경화증
asha
1706
코페르니쿠스
1758
##lles
casts
##த
복수
레저
##rson
books
pink
[unused39]
tonic
int
neighborhood
difficulty
cruise
barely
crumbling
습도
helpless
greaves
헵번
베타
##unced
[unused360]
multitude
##mac
humble
flood
고고학
aristotle
eastern
수첩
peck
burton
strode
mechanics
stadium
sinclair
봉착
확률
tag
##00
kendra
통행
lexington
##wer
handicap
##ential
ㅁ
물리학자
bo
##ill
services
dissipated
astronomical
묶음
jian
203
firearms
패러데이
lunatic
청년
wakes
##eering
유비
kv
[unused95]
##ridge
##eg
407
admission
530
이남
raids
fielding
500
therapist
##fers
권력자
##rney
ᅲ
##ᄌ
코리올리힘
등비급수
삼균
데뷰
corrections
기계화
[unused559]
[unused690]
alaska
armando
entrepreneurship
disappearance
benjamin
석탄업
불규칙
goldsmith
pancakes
계수
##illo
사법
disappointed
##croft
ᅳ
진술서
개인사
역
교제
ர
##lay
newmarket
##net
벌때
본뜨
concerns
마다가스카르
dummy
elliot
idols
skaters
mild
every
색력
hospitality
장력
constitute
##mbled
translations
lyricist
wills
잇따르
pornographic
sector
lenin
voodoo
comical
다로
configurations
lacrosse
cypriot
polgara
동차
태자
ur
lie
extravagant
tessa
spiders
langdon
maintenance
형성기
초안
arrivals
verona
잠재적
tipping
processed
leasing
slopes
블랙
thou
##■
##gging
doo
rests
安益泰
persona
##ス
풀려나
양양
pitch
由比
보디빌더
공유지
제청
eventually
rap
imitation
으로써
##英
##lge
lar
aquatics
하
bryn
lima
finished
nationality
impending
uta
brad
근일
##gt
##oman
##ary
cartridge
relaxing
piss
steaming
artisans
초다윈주의자
##lch
taxpayers
bathrooms
dunkirk
[unused80]
##adia
advent
considerably
실종
click
Free
thousand
geographically
동년
위기
팔레스타인
전시
소화기
弁韓
waistband
경고
extensive
농수산물
소폭
syed
galactic
wires
신호
spectators
부작용
조종
[unused65]
containers
[unused498]
second
engine
flee
learners
##stic
##minating
clair
mag
예정자
##oys
humanitarian
backyard
directory
tnt
watery
rocky
deployed
1368
available
airfield
자브르
ep
veteran
sickness
assigned
껍질
deals
pocket
lutheran
경쟁력
##ated
northwest
##ored
29
sweater
허드
ace
recognizable
veracruz
passport
coldly
pieces
seaside
feast
rodents
연승훈
##linger
norris
caucus
duran
##ull
이루
faces
성토
##ees
downward
접수
코펜하겐
garage
psi
먹
accents
아쿠다가
cory
operates
deceased
##sie
##ப
hardwood
선산
성신
##tort
myths
##rangle
후한
hourly
재중
adobe
폐쇄
온도
ensembles
faust
con
##45
##ulent
##dicate
bland
unseen
천문학
middlesex
보수파
outfielder
swimming
지양산
steve
buffy
anterior
noticed
resignation
derek
succeeded
시원찮
##ond
heritage
젖
238
partners
1741
sweatshirt
에스비에스
stuart
셀빅
ಾ
이기적
새누리당
brisk
발굴
10th
bret
의식
개월
kepler
케이블카
energies
sections
imposing
grabbing
##sian
三角函數
행적
．
mixer
群論
replicate
탐닉
froogle
parties
heading
##‐
human
[unused910]
subscription
내각제
dread
##mate
##gonal
exceptional
##ress
향상
##kling
스퀴드
irina
aspects
##nsor
WiKi
tired
西晉
guernsey
##iring
정정
##dhi
대권
##ass
jaw
임명
raise
##had
training
수원
beaux
survives
970
AT
moody
principally
gills
lecture
어원
담배
소유
lids
frs
locomotive
##aldo
architect
identify
소추
condo
side
노이만
「
##jevic
todd
도움
분리
백제
rock
interrogation
fond
runner
hen
결과적
hugs
성적
restaurant
강화도
니콜
arrested
##tablished
##len
##ark
duluth
Site
퇴직
philippines
professorship
되돌리
Archive
promo
hygiene
173
##²
세르비아계
targeted
frontiers
무능
메나헴
미시적
WNET
世
경지
hating
##nger
sampled
emmanuel
[unused689]
disgusted
archaeologist
used
441
jacobs
##pta
비회전
이모티콘
1980s
funky
68
##ל
marjorie
사용료
큐브
enrichment
intellectuals
끓는점
##gl
오파리
վ
proline
cayman
[unused126]
wrongly
combatants
##ir
fiona
candles
##mut
##cene
four
controlled
##nco
##brush
러서
솔레노이드
견습
홍보
노미
assess
cornish
겔폰드
석권
eric
quinlan
denial
refinery
##pressing
913
도호쿠
##ame
octave
flour
Hart
gave
[unused964]
da
가담
쌍둥이
이례적
4강전
학제
even
##…
##ই
worsened
serbia
켓이다
##tea
shave
beliefs
기장
초속
styles
이상수
rca
seizing
수열
reaper
##cao
음속
##iance
망언
ₖ
Mathe
참여
tempo
hostel
perch
Cellvic
vital
خ
보안
##frame
궁중
한일
애플
contest
trial
divinity
서린동
앙
primary
283
styling
carol
heaving
##raphy
대세론
해산
Panther
drugs
mechanic
##nge
연임
교육청
폐간
monopoly
thoughtful
possible
sports
bloody
crushed
breakers
sutherland
장르
neighbourhood
[unused112]
plate
174
류노스케
왼손잡이
[unused5]
Chemical
비수
##tt
종교적
professionally
소지
supplemented
lindsey
이병
##gua
화면
복소수체
##cam
exceeding
nipples
transfer
패전
##plate
yucatan
아주
ff
stipulated
stairwell
laps
proved
csc
mysteries
長
##sca
victory
##花
orphan
##メ
##相
벤처
rodrigo
govern
smirk
stuffed
baylor
institution
달팽이
이롭
rides
철제
ة
inconsistent
낡
라켓
modifications
##vyn
scotland
74
representations
trading
shortest
feared
##tian
tierney
##bus
캅카스제어
mal
에드워스
에우클레이데스
chong
편입
최종
staunch
인자
[unused577]
스크립트
2011
mayo
##tern
소수점
violence
##nus
var
protestants
누피디어
venue
##lster
##cc
담홍색
이화춘
lowe
layla
shakes
northeast
louder
jake
森
interruption
ze
자유주의
apps
beaver
positioning
##oco
towels
ignition
snyder
EPR
구장
reigning
ty
독서
humboldt
financing
변모
®
권력
음파
세로
organising
essex
artists
2013
gently
Memory
##iary
##よ
exhaustion
forgiveness
[unused403]
##sport
presenting
ulysses
사회주의
slipped
내포
빈
zee
최연소
protests
cannons
apprehension
입학금
49ers
scrolls
##tropical
action
score
막시모비치
소산
1356
듯이
##rana
유니텔
invitation
headline
zen
345
curve
sparkled
tna
laird
##thesis
faa
augmented
##ied
signaled
##erina
nothing
tin
searched
해럴드
KBS
regency
quivering
concepcion
포위
vulnerable
전당
drones
[unused811]
##ont
示
monks
유클리드
develop
돌연변이
기업
[unused254]
infection
##zon
zhou
##imus
날아다니
courses
개인용
##⁻
화합물
신경
##die
MPG
het
공간적
blake
outside
##lastic
1650
##ध
analytics
1838
deserve
Bruxelles
rc
##rating
##tting
##lyn
반드시
validity
방어선
##য
가을
ultraviolet
archie
기록물
##÷
½
쇄국
sanders
misunderstanding
보드장
##lita
icons
dockyard
허허
resentment
광석
##ence
경주마
formal
cadence
##gaard
##imi
お
만남
##€
cupping
guitarists
jacob
##aca
준수
incarnation
득표율
fairfax
탁발
legislation
장택상
타결
drank
anthropological
dove
overrun
thin
employees
seed
frankie
##lins
poverty
雙葉曲線
junta
##bour
##lynn
cassandra
notorious
뜻
planned
사회민주당
근대사
매회
내비치
자라
writing
presley
대표적
몸담
##ilis
수질
흔하
이견
아무런
elliott
surfing
empowered
[unused695]
온화하
유체
모서리
노회하
##lium
밀실
실무
gum
##antes
lurched
##eft
cares
##iah
ives
centimetres
gardens
[unused357]
##gingly
fraser
상태
criminals
350
브르퇴유
registering
christchurch
larry
coliseum
urge
commencing
려면
##ange
orgasm
출입
mana
##ibar
ʐ
⟨
brewery
twists
slovenia
사비하
abilities
##lled
leveled
다녀가
blindness
blur
jogged
different
painful
어스
teaser
denny
mk
거행
악몽
barriers
56th
ideals
thinkers
evaluate
cloak
##tton
포근하
clicking
grocery
blinding
##yme
신년
정가
202
진수
mcguire
handy
1955
flanked
happily
나츠메
smaller
##ils
철회
blackwell
미국산
南京
##aja
mcdowell
у
skinny
시간
warren
islanders
양산
stroking
reissue
KBO
renee
widen
glory
biologist
aleksandr
library
대안
revival
PSTN
##borne
ancestors
gui
infiltrate
Wiki
camilla
조카사위
blouse
sweetly
sims
dorset
persuade
behavioral
weir
traits
superhero
커닝엄
tasha
viper
nato
필두
혼재
naples
rooted
mass
일상생활
##bara
caledonia
가로
concrete
zones
##x
management
[unused243]
##izes
느냐
related
옹기
paints
democratic
공지
sons
spitting
요소
perfume
met
GO
physicist
laws
계층
they
inequality
beirut
walls
conan
우경화
randall
stadion
양재천
nsw
단
국무령
프랜차이즈
க
ernest
##ッ
Gutenberg
CQB
seminars
##mium
탄핵
차관
가치
리우빌
수집
한류성
canopy
parochial
terrain
industrial
clutching
artemis
산하
圓周率
합법화
theories
##ου
항
응급
수퍼
consider
kan
BBC
podcast
manipulated
drowned
호스팅
##shida
lightly
오히려
537
slapping
##₎
mn
##rden
balkans
류
prevents
I
gradually
##wick
위
##ore
ᄉ
서두르
madeira
인쇄
packing
연
cuffs
지식인
marble
cocktail
inducing
최병서
trends
faint
중랑천
통행금지
dominance
관측
mercy
cfa
##vered
시장
사로잡
내려오
jericho
rankin
탈당
kruger
corporations
1850s
고이즈미쵸
수동
warned
졸업
commit
氵
##aceous
eternity
##laya
geoffrey
화북력
acidic
배기가스
loser
taiwanese
육우
continuum
홈페이지
우연히
아레나
urine
불일치
##fting
1820s
내부적
[unused468]
통계량
마쓰시타
##fixed
[unused511]
ipa
장인
##quet
biennale
[unused163]
철강업
kettle
평부선
패션
과학계
complex
happen
shone
엄마
1755
ћ
sunderland
biker
hector
라플라시안
1905
sounded
nicholson
outward
lin
08
handbook
flinch
turbine
노동자
장난
##bber
으려면
evans
arrow
install
문호
촌
##pf
기자실
inverse
tools
군론
##rus
상리
righteous
swindon
ancestral
diseases
sabine
누리당
연인
재벌
curling
cosmos
캘리포니아
##zle
es
##nberg
concentrations
friction
jim
河套
equals
cemeteries
이슬람교
서민
rehab
결례
mechanisms
740
abbreviation
mafia
molly
luggage
reborn
항만
taxonomic
감염
[unused800]
alec
##smith
maneuvers
[unused934]
railing
fashionable
##fall
peacock
lukas
malice
[unused648]
스쿨
감소
소
수도
蜀
pendleton
악기
진화론
cables
skilled
dominican
projective
同
작전
할애
같아지
1872
acclaimed
함일형
unless
ul
[unused320]
1945
##海
gear
APEC
操作結果
효과적
갑오개혁
1757
secretary
consuming
양기탁
탈레스
illustrator
positions
technologies
신식
##aker
##nessy
상고
##nik
anal
Erwin
argues
archibald
요리사
lamar
schooling
ま
수립론
메인
priesthood
1394
minerva
을미사변
비회
reminding
일찍
drag
무색
##ides
settlements
1724
NLL
modeling
tyrone
hats
운반
mozart
송두용
corvette
realization
monitoring
savoy
양대
장치
김수환
〔
##gned
[unused879]
코타
##lad
오리
##matic
justice
美
와중
pronunciation
emission
brussels
roberta
##ɲ
이산
##und
lesbian
##ati
moose
촉
sense
일대
petrol
정화법
신주류
shakespeare
시작
유추
에이지
##aby
commodity
convoys
##chia
hurried
조명
skyla
midfield
mig
boxes
amin
동해안
다가가
괌
##liness
##jean
weird
##tl
배치
z
미온
온건파
venezuelan
stevie
고해상도
곳곳
다르
pont
magdalena
##oms
superiority
보건
브라-켓
handing
알몸뚱이
bei
195
unanimously
unicorn
교량
감속
laval
kemp
ア
##quil
irresistible
의외로
reliefs
handler
crates
밀반출
curiously
인턴
물속
propped
링컨
tak
riding
배포판
wears
styled
seventeen
lloyd
아침
앞바다
attendees
homogeneous
[unused862]
clap
stations
participated
morse
blocking
uncanny
##oo
nonlinear
공세적
therapeutic
1867
1960s
membranes
유신
baba
[unused508]
harrisburg
기울이
sham
formailsm
along
locals
##ooped
networks
마
##see
password
concluded
ate
##iso
eliminated
astronaut
실존
##υ
burkina
pear
##yne
blast
tan
liturgy
fleetwood
suburban
archival
ripe
northwestern
##ط
오사카
고졸
followers
기한
prospects
imprint
##ids
saskatoon
direct
벡터로
jax
suzuki
daniela
근대
##aan
backed
생존
##old
##ilia
it
cougars
ya
›
chloride
위시
##方
beauty
johnston
appreciate
너럭바위
순환
arrogant
shang
[unused260]
천리안
##pid
주머니
이질성
midi
近藤浩一路
Smith
##⁶
rockefeller
##cite
swami
##rb
orlando
##essed
removes
doomed
선박
해석학
illegal
naive
falsely
banjo
[unused1]
도술
ce
포괄적
귀착
weather
ウ
상대성
기상학
공화인민당
더
단독정부
##morphic
leonid
까치
##lysis
[unused148]
fibers
confronts
진핵
braden
ufo
##uck
역량
##sford
추도배너
spatial
seismic
낙동강
albania
musically
생화학
해프닝
[unused612]
chartered
홍제동
方
직업
hokkaido
교복
sept
disperse
gilmore
GFDL
알루미늄
los
radcliffe
공학적
werner
eduardo
navigator
corporal
pierre
[unused284]
##promising
undermine
breakdown
cerambycidae
전격
독특
[unused226]
uses
광복
filippo
bends
##kia
violating
고출력
여지
arya
외삼촌
인질
janata
shen
mitch
##pres
물리학과
cpc
collaborators
105
##ease
murderers
국내
##dust
자본
버스
unnecessary
아소
쌍극자
im
invade
FM
한민족
아포리즘
archers
baldwin
incorrectly
reigns
tyre
NHCHRCOOH
##dana
##rrow
schools
mound
새살림
chick
##riders
##ban
Independent
스테이크
peel
##lus
ᵢ
timer
cleavage
imperative
brianna
백년사
catfish
mentoring
##rocity
bulldog
레닌
[unused94]
플레이어
##psy
champions
deafening
토기인
dangerously
fleets
##powered
윌러드
unitary
nightstand
ᄐ
민속학
나우누리
salford
unauthorized
tourist
스탬프
constrained
##gin
bihar
주년
inspection
ripped
resign
toxicity
육성
[unused759]
bangladesh
freight
아쿠타가와
춤
일선
approach
초자연적
##eva
mama
##cas
東晉
페트롤
tramway
수
infringement
.
exciting
微分方程式
cumbria
ruling
tad
실전
knob
##hei
anniversary
frenzy
canvas
1707
facilitating
initial
wrap
captured
##lation
##erative
백골단
tomato
biological
임대
lighter
의복
ㄴ다면서
동맹
면책
[unused67]
중근
kr
enacted
자연계
흔적
짐작
steadily
croatian
쏘
캐럴라
gleamed
끌어내
bared
denotes
尹致瑛
추리
amp
julie
민족주의자
himalayas
경쟁률
기화열
dune
chunks
봇물
##ories
일종
[unused294]
pipe
senegal
##ᆯ
##saka
Gabriel
abelian
play
단식
gloria
도입
silva
excess
voter
pretend
ranges
崎
state
신정아
monica
latino
gershwin
변호사법
grandparents
hottest
유치하
sargent
williams
guess
assume
UC
고향
mathew
fries
관찰자
matrices
桓公
획일화
더불
belong
##hesive
##gur
factual
페르미
취지
##pi
shout
데이비드
verge
560
##vie
모리스
maddie
backing
opposes
donation
victims
그러하
palermo
teenage
rods
banco
lifespan
증기
오
同値關係
##foot
spokesman
##llis
Geoffrey
latter
보르
easter
剩餘精力說
흥행
そ
sv
coincide
##福
deacon
위계
##dict
coupled
gs
microwave
salt
trumpeter
python
##db
administrations
대처
portrait
opus
ability
내보내
정중하
america
answering
##uting
rouen
spelling
황당하
1814
whereas
부교수
##lous
요
mar
##ural
극히
cyber
##dium
부가적
cancellation
woodlands
1831
회고
futures
핼리
##sling
##arded
rejoin
exploded
repetitive
사격장
바닥
virtue
loaned
rotary
오오
intellect
م
pepper
northern
parentheses
##nar
비약적
catalina
P
[unused332]
timothy
통일교
시리즈
fernando
para
jurisprudence
integers
honored
진에어
speak
rejecting
종묘
호남
##right
나무
##崎
하이쿠
refueling
의정서
crossed
welcoming
오귀스탱
sometimes
##bi
achievements
levi
##gong
ノ
yd
newtown
118
91
ㄹ
someplace
ferdinand
hoc
arise
loire
underwent
##grave
망치
낮
무취
assent
bony
베이커
단파
crash
텔레비전
ɲ
클러크
[unused384]
dissolved
vance
##oit
ส
집어넣
presenter
clocks
perspective
liability
showdown
devices
##zek
북방계
thorns
humidity
마사
##ں
tilt
##rh
##anu
instinctively
cushion
gabe
flaw
handed
felix
가환군
오닐
vertically
colleagues
nods
berg
tuberculosis
avoided
##ョ
폐막식
양자
후진
곱
supported
tibet
전류
五帝
식이
sousa
##ieving
rapid
##uance
fossils
격차
covered
sends
calvert
chant
기준계
지자체
turquoise
cmll
harald
범인
頊高陽
##mour
44
성한
shaft
tissue
공로
##nem
어야
흉내
##ɬ
##ouse
연루
不確定性原理
村
stigma
상표
구역
euro
도쿄
skye
우리나라
britain
hodges
고수
establish
국책
앎
thesis
트랜스젠더
1893
asymptotic
september
군력
kinds
colours
confesses
est
##hra
상징적
mavericks
형태
반군부
backs
ruby
sous
hicks
unconventional
sung
봉사자
chants
##lian
university
보관소
포장
twenty
opium
M
ice
837
그래프
signalling
compelled
blossom
mustard
assortment
1630
promise
liam
southport
두루
orphanage
untouched
모드
[UNK]
##izan
##oj
##dl
discs
##unas
帝國文學
자생
strips
##nst
[unused692]
famously
cowboys
##ist
m3
convection
403
오락
만
jedi
취수장
lucius
leach
clifford
##loh
lombard
안국
##mament
resources
쇤베르크
##national
테헤란로
linguistic
talked
영역
organisms
##dded
[unused270]
253
nomination
토사
표본
욕구
##lub
봇
kills
수중
피아니스트
이항
volume
kenya
타자
printed
채팅
사양
생체
rockwell
starts
realism
[unused356]
birmingham
manifested
회기
featherweight
aperture
twelfth
nur
민중
danced
전교조
knee
amir
##ades
mineral
1st
tn
숭
rovers
completed
warships
exercise
browns
##nl
dy
enters
goethe
fraction
##urn
analytical
remastered
##iol
##nsen
banana
coveted
autonomous
[unused792]
fellowship
professors
으면
atrium
packs
##ille
아테롬선
[unused398]
roberto
scarf
모리
coding
hated
연합국
유래
저장용
troy
possessed
경전
affect
##nian
propagation
horrible
slipping
##iver
number
[unused569]
adi
aggressively
def
helicopter
rao
constitutional
입법
splinter
utilizes
wyatt
seasonal
흔들이
방대하
literature
##by
Government
concerts
contribute
##poulos
lama
slight
adoption
osborn
weathered
mccain
792
email
[unused465]
marcos
##ᄅ
postgraduate
centred
191
paranoia
楚
maud
thanksgiving
넓
심지어
innovative
volga
골든이글
##200
diner
단가
straightened
설계
[unused585]
theft
있
reflected
##tial
##rous
단면
##rl
stockings
배격
kinase
contractual
emerges
intersection
clement
복무
dash
##anza
agree
kang
[unused544]
검토
食
ˢ
##than
[unused827]
airplane
dresden
airfields
[unused109]
advance
endured
비석
fires
solve
크로손
buren
seamus
faso
##θ
미끄럼
##rito
midsummer
ز
silvia
valencia
parkway
##ј
앙페르
smooth
bath
로서
care
immigrant
swiped
아웃사이더
거미
태생
ostensibly
mughal
below
nicknamed
분기
contaminated
[unused2]
##iny
pearson
PP
regimes
seekers
privilege
admiralty
##held
tenderness
triangle
우지슈이
1973
[unused229]
murphy
livestock
cultural
versailles
##ici
확장
군벌
customer
intercontinental
hardcover
coefficients
clubs
[unused982]
##kam
메뉴
인공호흡
jug
definitions
재판정
##emi
superhuman
temperament
junior
eat
##rit
yoga
seductive
음수
english
피코
unearthed
democrats
발견자
나가
excerpts
assaulted
kiss
##lov
nagar
diagonal
reused
##han
줄리언
reversed
xp
lawyers
재크
ache
editorial
hitting
오웰
judgments
liechtenstein
코로먀라는
seats
##₩
scratch
1956
이두
중심
leaf
##rigues
전택부
disciple
##tson
technicians
clasp
stormy
kochi
bessie
##edly
concentrating
피롤라이신
AM
projectile
[unused132]
confidential
##lp
plan
분열
contiguous
bishopric
극
아민
下
portals
え
fuel
marlins
banded
지시
기안
우안
탈당계
##version
panama
##∞
transitional
Amherst
##ching
pickup
shouldn
blah
nana
tricky
이즈미르
←
goalscorer
goodness
specimen
drains
용인
faith
dreamer
afforded
divorced
delegates
font
compilations
theresa
mandarin
##wn
conservatives
##eving
희화화
스토리
thai
##nell
expansion
indifference
pacing
newton
정형
##edge
azerbaijan
ares
stucco
일련
인사이드
abandonment
센트럴시티
koln
noses
##ered
jared
미포만
불과하
prone
[unused391]
기증
council
boot
자발적
##sdale
pakistani
verlag
rei
Multiplicative
things
welsh
##fields
lau
석회석
계산법
wien
reportedly
342
바울
seven
siam
eastbound
evade
executed
wearing
malacca
이차
patted
sherlock
겸하
비통
PocketPC
창조론
ike
php
escapes
additions
port
dinah
타운
ن
[unused678]
royalties
breathing
수정
민족어
bahn
flank
##گ
씨알
목격자
##routed
누락
[unused288]
crete
activists
calves
##aga
violent
eliminating
businesses
rare
magnate
1828
FEBC
replay
mounts
－
cradle
학파
refrigerator
##石
배란
곤자쿠모노가타리슈
xinjiang
전혀
인코퍼레이티드
hamlet
distributions
pit
귀속
programs
사이러스
서위
nicholas
encryption
valuable
##sto
nu
spoon
interfaces
tubular
witty
한계선
##オ
forearm
pollution
그러
abd
##guide
unfolded
ᴬ
##evsky
longer
dowry
디킨즈
disturb
각인
##bation
gut
담합
FDL
##imate
144
unrelated
##havan
4a
신장암
##ŋ
peshawar
명소
지역내
hebrew
massachusetts
diaz
improvisation
global
교토부립
models
##rim
經過形式
lack
shredded
연령
frac
creatures
통계청
거세
gross
##rro
lb
nationalism
총무원장
washing
##aster
띄우
groups
개설
seahawks
부유층
removed
[unused524]
infirmary
획득
질서
851
원칙적
millionaire
within
gunfire
saxophonist
stockport
norfolk
캠축
fingers
##ldon
handwriting
proves
지질학자
eddie
##ronia
##osaurus
bs
doubtful
unpaid
lai
에스키쉐히르
##loaded
yves
상쇄
antique
##bu
참전
도매
disadvantage
서초구
##ioned
다
223
에그
inherited
host
##ear
Art
supervising
##ayan
##ʁ
단기
budge
amplified
다도해
perth
disguised
axis
quran
TBN
節理
##piration
already
approved
입주
alley
부르
반론
페리
lastly
##co
남한
##ble
remixes
센터
gesture
유아용
##llation
##青
leapt
פ
duplicate
타
peers
oman
wales
角運動量
charity
organic
historic
##ʉ
##wny
hideout
하쓰
능가
yen
bible
favors
만스커
regards
##walk
raymond
seasons
projection
attacked
##enstein
lawsuit
##龸
##jali
극적
interpreting
축
[unused451]
fear
snapped
벨라루스
responsibilities
rented
liu
vanuatu
구시대
hoover
##uil
##wash
갑자기
malay
##itated
이순례
##eley
barangay
캐서린
representatives
augustine
##quay
##ryn
심상
직물
cheaper
고양이
throws
406
덕일소학교
begin
##ვ
기도
일명
wouldn
stereotypes
꺼지
atlantis
エ
bloomberg
이미지
##iness
%
mourning
scarborough
creek
##hila
amelia
건설업
土
대칭적
ser
semantics
##発
운동
derrick
스페인어
quarries
orchards
stemmed
readers
splendid
fuck
ड
gibbs
freestyle
##門
frederic
불
레스토랑
bucks
##რ
전라도
retreat
coffee
charles
측천무후
단숨에
rations
1842
hayes
…
##oma
구골
의문
pauline
page
employee
sunlight
곡
고용주
SE
relatively
soon
homeland
학설
confiscated
삼풍백화점
칠웅
quaker
offences
세무직
allows
사시
정치가
porto
anthologies
warn
demon
측지선
##lit
ogden
화학자
anglo
古
자세
guthrie
自然哲學
greedy
hike
fierce
frozen
tanned
sitcom
tempting
buena
##成
honolulu
guessing
아래첨자
##氷
놀랍
americana
[unused275]
mall
교부금
lodge
대전일보
폰
vowels
##ologists
##dran
##usa
##lem
machine
##bius
체육관
[unused615]
ponder
sino
다민족
lightning
카티아
[unused617]
사이트
중화인민공화국
anson
surfaces
exactly
##岡
comic
유족
[unused99]
christians
recalled
intrinsic
마녀
작동
airing
자형
pile
randy
stoke
ص
##wala
았
lions
handkerchief
기독교
regulations
##box
##lson
##uating
##ell
good
resolutions
피에르
철강
proton
fins
##rrard
앨프리드
romeo
중장거리
　　　　　　　
quantum
수장
tens
ordinance
³
필치
뚜렷하
mansions
hacking
groaned
DVD
stephenson
organisations
##scan
malawi
canned
자면
barr
walk
[unused720]
world
duff
romania
23rd
여와
ford
##rca
오가와타로
라인
##ա
gazette
machines
acts
356
##miento
growled
##writing
summary
페라리
mojo
giving
fatty
jagged
##re
darcy
forsyth
priority
##lim
[unused750]
고리
신탁
스코틀랜드
ψ
ล
damp
간결하
비효율적
provision
궁극
백억
##nsis
guard
unveiled
##yre
endeavour
fridays
##nsed
Q
allegedly
horace
shortly
228
countryside
rbis
casa
holly
##llie
##ife
##tish
나쓰메
el
遊戱
##dern
stumbling
##ن
3a
창
shaw
overwhelmingly
garlic
pamphlets
##cision
기억
proceeding
treacherous
raj
cottages
qc
##口
resumed
##wind
미술인
bowie
새벽
redevelopment
국궁
mushrooms
자원부
firm
moist
1890s
##sh
##lassified
ganga
reality
witches
stuttgart
成漢
임시
생일
collection
다뉴브
gaulle
##lets
coleman
radioactive
##morphism
GDP
초이
vocals
##cho
journeys
##gman
##ika
[unused978]
지반
honorary
##min
treated
채무
mentor
모국어
방사선
dramas
processing
지분
wishes
##dit
##ault
mona
barre
rental
민간
폭정
[unused457]
icelandic
person
iranian
광전
[unused908]
dull
liang
##bers
##biology
##skie
nk
章
lacked
##with
pali
რ
metacritic
면역학
struck
grows
imprisoned
사조
lumpur
##lar
공영제
quarterback
decidedly
잊히
##ned
windows
depot
화학적
아시모프
질산
[unused117]
郡
node
광합성
##let
##inates
하리수
슈트
웨버
##ographer
##bag
akira
학자
dinamo
looted
fantasy
ex
authentic
##elt
중계
##wyn
independently
becomes
運動量
[unused428]
교착화
[unused620]
clients
##orous
통수
##di
thinking
viet
##nr
juvenile
ezra
georgia
production
poses
chrysler
드디어
attempts
kobayashi
聖書朝鮮
##ud
camped
德一小學校
allocated
gossip
roll
isle
cats
fearing
간추리
helpful
hoped
coffin
전통
inevitable
assured
warns
bowing
approaching
후금
soaring
wince
1912
켓이고
undergoing
cooling
##ssee
결리
supplemental
reaching
receives
##ge
北周
american
[unused584]
노구
sirens
강준식
bel
coupe
쉬
confront
federally
wool
lot
strong
skipper
[unused985]
실제
estranged
##dora
ต
히데쓰구
casinos
cared
exhibited
relatives
pitched
##fi
exempt
##ষ
rhythm
##orough
루트비히
methods
##iard
인터넷
##uro
육면체
frantic
##nad
##ettes
Moyers
glacial
문민정부
브랜드
행태
illinois
ensures
shouldered
　　　　　　
through
로고스
ebony
##ק
program
munich
betrayal
manny
##itch
ancient
84
peach
업체
개발자
##cha
bricks
##roved
meek
damaging
물질세계
인멸
therefore
youths
핀란드
offended
exam
칸
navy
초경
how
##fc
penthouse
dukes
##rak
underwood
nikolay
##enham
##sive
Korean
wholesale
contribution
υ
잠재
##oga
seventy
구릉
블루
시공
저격수
wylie
올리버
drastically
vomiting
pathway
선로
lynne
井
##lvis
surf
變換理論
Asimov
tough
sophisticated
베일리
contacts
conquered
##udes
촘촘하
##zo
loops
sg
stunned
132
daly
paste
협력체
는
charting
trigger
관람객
foreman
덩어리
helens
dreams
무관하
carpet
sunrise
os
아서라도
……
아
越
[unused515]
포개
運動
deities
fulfilled
[unused627]
thence
experimental
삼차원
dietary
irving
copying
반음계적
브레히트
persian
pushing
hyde
perpendicular
##gue
years
skull
connector
piccolo
occupants
보스턴
annual
specimens
##ム
##ution
##thy
dialect
robes
unexpected
hydraulic
genoa
유계
marin
festivities
bodied
[unused666]
empty
jerking
[unused486]
viewers
##sd
temporary
marines
밤
inhibition
courtroom
pep
frderung
doors
쇼트
[unused244]
lets
heartland
##01
소행렬식
오찬
비판
역사적
##igh
이세황
glanced
방사능
##ard
ds
##oshi
vuelta
##nbc
##ₕ
monarchs
##erman
resolved
eng
왕따
탈환
trenton
babu
찬반
mates
턴
##ை
동호인
o
discharged
망가니즈
##thest
버크셔
esther
athlete
jeffrey
##kas
포랏르
nils
≫
경제지
진나라
hua
talbot
길이
hs
sellers
부상자
##eria
패이
sunshine
symphonies
dv
환원
minister
selections
geometric
협정
accountants
lust
commander
eureka
펼치
berber
샘
roses
녹이
##lers
mess
##vert
저작권료
##ali
wr
##lving
floated
unbearable
증산도
##gle
신석기
far
##=
고등
[unused972]
childless
번육
reliability
할로겐
직사각형
incomplete
sim
bastard
사표
cruising
##fire
spraying
##⇌
thirds
잠재력
영웅
condition
apologetic
WikiWikiWeb
三皇
馬
synthesizer
fingered
bulging
##hue
hissing
decomposition
동물학
##athan
타이
switches
정몽헌
쪽
Eve
vibrated
등등
十
일기
softness
AS
caring
republican
sediments
application
bearings
wisdom
ㆁ
동안
binoculars
ministers
튀기
germain
민정
##ucher
##ports
대사관
##ம
willing
[unused941]
burr
despair
jaguars
했
emil
robertson
deportivo
transit
대체로
큰대
unified
##ctor
developing
##tos
kiel
민속자료
streams
SU
##40
reluctance
doctrine
##軍
cn
##ミ
victor
##ango
문인
alike
지정
지휘자
진입
exams
carmine
##dm
escape
##qua
madness
여부
sleeper
flashbacks
admissions
##ɣ
calling
구형
1954
양육
막시밀리안
michael
ladies
wounded
[unused476]
linnaeus
glucose
papers
cindy
plurality
##yes
loss
sparsely
다국적
##anna
topical
##ping
cp
친근하
drift
semi
ъ
##的
안창호
establishing
##phobic
##zuki
천국
##rington
신장
1797
nes
대서특필
dim
[unused858]
기종
[unused795]
##ended
appetite
synonym
자기력
powell
폭압
libretto
crew
##nic
location
midland
이인제
##dav
동탄
nevada
시신
발견
amid
##beau
1628
gallon
자체적
carolina
##lier
fair
rhymes
seasoned
BC
groceries
believed
하마스
당연시
colon
##久
feelings
employing
설문지
surrounded
guzman
Havelsan
내려다보
##founded
클라
##85
engines
interceptions
unaware
beams
시겐설러
theory
1769
확산
멸종
진국
expenditures
descriptions
구석기
clone
自由文書使用許可書
Richard
minimize
자율화
##wled
driving
부처
ш
서술
clutched
고이
은둔형
##shah
권위적
touring
취업
국민
63
asa
pierce
포탈
kassel
hindwings
[unused84]
##lth
fragments
priory
15th
clarify
messina
가능
애완용
subscribers
처음
colchester
kapoor
책임론
##iere
항공기
대응성
꼴
540
육군
달
laughing
mistress
altar
##abas
북아프리카
snake
kiran
수용론적
feasibility
바리
computational
[unused860]
붕괴
1917
protege
circular
simulcast
jubilee
pau
##ants
proof
130
appeals
1b
비영리
김경수
후기
haul
juarez
제한적
오곡
추구
촉진
미루
수교
##₤
bowman
solar
appalachian
중퇴자
scriptures
시흥
##tors
柳錫東
halted
converts
rochester
drafting
]
abdullah
##ィ
급증
enactment
nrhp
야하
muscular
aroused
dwarf
guadalupe
##note
70
ministerial
gilles
everton
φ
17
##rri
rite
地獄
##iom
##rgos
outset
listened
##eim
federico
조지
modify
디리클레
trembled
trunk
pulp
baseman
ta
wizard
호화
seconds
envisioned
여러분
broadway
mach
무슨
애널리틱스
[unused218]
만행
their
板
포름알데하이드
오제
[unused582]
##ヒ
다이얼
reacted
##二
yo
publishers
situations
##pling
##uary
disputed
전자기파
##51
홍현
##34
screens
chests
고백
개체군
sequential
petty
provided
뜨
버즈
α
placed
##ury
obsidian
neal
berries
stein
구조적
coping
korean
snarled
##roid
##tana
tackled
pry
수학과
[unused631]
gestapo
sylvia
국제선
섭씨
explores
##nary
rotational
##後
문법
fluids
豊島志雄
[unused209]
관리
[unused206]
nominee
helmut
##東
materialized
상사
unfortunately
유희적
전립선암
ちぎょらく
pediatric
conferences
[unused907]
코드
prima
유료
fertile
tucson
curse
이어
희곡
eight
flair
1675
leader
##aith
##uru
##oted
kristen
saving
oceanic
켓벡터가
[unused942]
쌍대
鰐魚淚
policemen
타계
##roi
##uous
alberto
zach
terry
##伊
立
##氵
지네
바탕
championships
자결
angels
북쪽
##chio
top
amassed
robbers
##zawa
##shaft
폭격기
89
뤼베크
유기체
##bow
1632
방침
본
covers
like
chico
힐미
##ssed
spray
색전하
guide
##ath
sturdy
매기
dependence
creepy
기러기
##cote
꾸준히
mannheim
sardinia
was
相
patel
darkening
ள
수색
건강상
tx
oppressive
랠라
다항
##adt
上
모니터
worcester
landfill
gallo
역대
options
jose
posting
응답률
귀결
remembers
manchu
코자크
tequila
잭
deal
spat
##zan
위원단
##有
나타내
띄
##pe
firefighters
##run
바둑
흥
mrs
foreign
비공유
rightful
Hentbol
ambitions
bribery
munro
##nam
해답
##offs
앙고라
[unused497]
[unused725]
promoting
##yles
앙카라이
##trics
귀납법
ছ
그리스어
##cliffe
1392
##∨
masked
##orf
seeks
왕실
##lized
veins
william
ross
1969
##cin
walkover
##vina
끊어지
유력
곳
파라
준공
전반
chin
derivatives
ec
chronicle
senators
영남일보
child
다수
절경
haitian
־
transmitter
ᆸ
무게
상삼각
##省
juris
mayoral
ASELSAN
수어
##mp
charted
좌표
인왕산
expanded
mouths
cobalt
군도
원활히
소양
##я
nj
[unused421]
switched
획
clinton
신재덕
ambassador
according
##hs
만장일치
hilton
##haya
return
외국산
##meric
옷
수포
##kan
##wehr
savanna
implicit
##glers
포로
lincolnshire
experiencing
talking
playwright
portion
##ト
위키
##vary
teachings
singh
마으스
##raction
mia
sabbath
도덕
선언자
ms
##aria
confederate
restarted
##oe
WYSIWYG
vin
##oni
aesthetic
vineyard
유리관
branched
difference
증가
plea
##oto
한말
bottom
arsenal
##歌
delayed
之
06
##bib
bedrock
공직자
경영권
신기하
[unused622]
withdrawing
thing
1089
ronnie
marcia
주위
erica
prism
무라
드라스
peeked
##cise
##zed
refining
국소
비디오텍스
御
surveillance
shuttle
nora
대폭
[unused434]
##bei
fairchild
추수
현역
브라
queer
[unused253]
managed
instruments
##pired
peugeot
break
decker
[unused471]
drought
##ayo
마이크로컴퓨터
needed
detainees
།
chambers
미적분학
sara
destination
속내
杜子春
##mada
comedians
시초
속도
capital
petite
지대하
core
hierarchical
window
적합성
화이트칼라
항목
가르치
131
culminated
davey
marketplace
공립
barracks
isbn
##omic
무리수
judith
nueva
1718
ufc
##atus
동단
[unused891]
พ
ى
characteristics
jolly
늑골
maria
편의
천황가
translucent
이브
울산
##ら
도표
코리아
경남
##tag
noelle
listeners
동성애자
가족
buckinghamshire
induce
필라델피아
곧바로
tonight
##ろ
적산
⺼
ν
大
walks
정보
협동
magician
posts
thong
으며
starter
wards
서정시
swinging
cecilia
##mata
nationals
법조
명성황후
1806
opens
김종필
[unused836]
정몽구
데미트
doris
sherman
힘들
貴
scent
carbon
education
37
prompted
interactions
억압
물질적
떨치
Schrdinger
##asi
##urs
brentford
오대십국
기복
##wg
myrtle
subjects
overs
flourished
eukryotic
british
go
elisa
한글화
nah
고골
그륀베르크가
410
notably
성하
background
롤리타
evidently
Constants
1016
유종근
trilogy
국내외
채산성
1953
296
##ok
maternity
athens
##ntino
revue
프리미엄
민간인
간행물
베르누이
##գ
##ype
ট
ict
직선제
밀양
scandal
사건
##oge
centenary
政
modification
whitman
축선
evident
fringe
평평하
opined
kaitlyn
cracking
make
##eto
##ies
wrestlers
곁사슬
##zza
양견
상충
memphis
nouvelle
##git
송영길
artist
산둥
##print
철학자
##sque
swimmers
tornadoes
병장
탄생
##the
co
}
variants
brock
palms
gazing
devote
ranks
bartholomew
쥐
straightening
skip
astronomer
doctrines
##rut
##cb
생식
##stock
donetsk
##oped
을수록
grasping
##si
한라산
제조업
##rza
합산
states
highlighted
howl
균형
저작
vita
##tooth
한밤
1625
대동강
대학원
저렴하
establishment
navigation
chronic
responds
riga
뽑아내
수많
촉탁
unemployment
##mler
unsigned
airports
語
demi
scoring
##ario
×
넓이
mackenzie
유송
blinded
일탈
lynn
귀류법
inches
battles
stuck
glittering
roberts
though
##vale
hid
언어
discoveries
##व
tongue
##⅓
unable
수량
waterloo
serbs
hurriedly
##ciful
interior
##mal
hop
##ogy
문구
##mbling
발전적
johannesburg
incarcerated
부장
일체
citation
negotiating
적극성
uncover
[unused899]
advancement
로프
insane
pope
축구단
유키오
##rge
판무관
여론
[unused711]
222
showing
froze
##rat
insufficient
[unused365]
dow
fey
[unused616]
prominent
상담소
softball
##hua
1792
##utter
한국계
tomatoes
##tly
mongolia
정밀도
appropriately
ahmed
자는
연호
mcgill
##ually
[unused246]
documentation
among
tripoli
Galicia
newly
1703
인용
1823
의구심
야간
metaphor
studying
slated
polish
야콥
폰토스
maine
westward
##ari
questions
apology
##q
rajasthan
ronald
##tream
emitted
mason
attach
보조
patrol
##23
wing
부득이
진영이
알타이
##シ
fiery
dq
1879
127
##nos
##filtration
만들
부산대학교
[unused730]
##hu
천
surgeon
cinema
td
총리
노랗
[unused430]
완성도
signature
가곡
고급화
##火
돌림힘
eyebrows
godzilla
balthazar
멸망
도량형
부결
friendly
마찰력
pass
camera
중력장
테마
silvery
singles
costello
ebook
ton
francesca
Community
byrne
dew
세월
award
singled
[unused768]
gunshot
1780
운
tremble
##vin
frigate
##nya
多項方程式
beak
벡터가배
이기붕
생물학과
1995
##ła
##rie
sessions
heels
anthropology
제어코드
운영자
scooped
지진
산시파
다녀오
우파
ravens
정밀
대한민국임시정부
레닌그라드
성서조선
학사
statisticum
끝내
specially
틈틈이
statewide
racism
frightened
라든가
중앙당
##ᄇ
hair
narrowing
shivering
compilation
togo
지로
–
overcome
연분수
##att
시간대
##坂
narration
民
ensued
touches
restriction
oblivion
바로
arboretum
##encies
징수
##bau
hemisphere
잔디
일본인
beaten
##宇
jeremiah
nude
Yenisehir
셋
[unused420]
belize
宣
aisles
cale
갈라디아교회
##hoot
fictitious
goals
tugging
내재
겹쳐지
politely
。
accommodations
폴리
arms
advisers
침식
##森
사용자
overlapping
##maker
한가지
완비
maddox
concurrently
sentinel
destroyers
신문
unfair
비제차
YTN
afghan
shipped
##iy
tertiary
wildly
dave
##uttered
Issac
street
비인기
flowering
일레븐
transitioned
곤도
reformed
##onte
leinster
registers
catalytic
henderson
위대하
propeller
애도
봉화산
gets
모세관
복잡하
서양적
##ney
근본적
1996
aleppo
혼합물
standards
조작
꺾
hour
comes
euclidean
oldest
온실
##ʿ
submit
noah
belongings
정체
announce
선생님
tracked
[unused122]
accountable
변화
예외적
막내
exclusively
rousseau
문고
hardship
##gli
교류
##ttered
진료
masjid
이름순
즐
announcer
barked
segregated
논리
underlying
##opus
정기적
야스쿠니
[unused850]
##mon
rule
tides
midnight
##mberg
지동
geometridae
mcgrath
자살
maintains
pens
ascending
1101
주왕
진보주의
kisses
1960
ticking
soul
##helm
titans
Ankaray
marketed
차원
돕
의학
exclusive
##unda
상권
drum
coded
감추
##bbly
conditions
다다이즘
slams
사직
olsen
grazing
혼미
독립운동
국소적
fatally
bobbie
stunts
regression
barlow
기획관
colloquially
powered
disneyland
proficient
timetable
회수
19th
parchment
Reviews
노동
정동영
프린키피아
guinness
printer
넘어가
##hin
topology
injury
통제하
논설
traveling
complaints
[unused853]
격식
쾨프뤼역
을류
wta
vincent
없
gulped
##ℝ
corrugated
molecule
1873
ி
[unused679]
쌍곡각
지불
MAN
196
crawl
가르아티아
marcel
sacrifices
층류
50th
spp
전효숙
itv
distinguished
ষ
##jm
jase
rose
moderately
distances
후리
conductors
892
카운티
[unused763]
spare
competitors
medical
trick
425
♥
소듐
looming
entirely
lori
hubert
lending
musica
au
답변
鄭相勳
holds
wagons
[unused327]
brushes
##hala
wanda
all
구니타치
barnes
zoom
재현
stale
malone
peered
charged
aztec
wish
##ی
##+
덴마크
마우스
알
d
flesh
에스더
버터
##front
filled
cher
sic
재소환
speechless
##ბ
##zee
미사일
건축법
ia
eleventh
loaded
newspaper
skater
contentious
번개
Miller
stresses
심리
expanse
선거권
수리공
leicester
paramount
connell
삼한
basque
furnished
plaster
returned
##ɫ
만나
⁹
chemistry
##rda
퍼포먼스
머리
맞바꾸
musik
knowing
##abe
ᅧ
서산
د
unknown
삼중곱
males
rain
##cis
guardian
대하
성공적
제헌
연예
orbiting
[unused414]
##mba
프리츠
花
barns
て
thom
beat
지목
쌍곡
특수부
지름
monstrous
선출
구리시
tumble
huffington
##rbin
倍力裝置
##ounded
문제점
fatigue
##南
##user
newer
김나지움
##mouth
##士
##lav
濊
keane
poppy
犬
kaye
splitting
bonfire
##lta
동물
##ha
훨씬
##folk
accuracy
##₂
usc
forcibly
mangrove
azerbaijani
turret
pausing
ira
flipping
elements
##uga
bonded
##ler
155
र
obscure
疒
criticisms
visitation
step
lime
삼황오제
수계
112
cartel
농협
정인봉
늘이
patriots
##rring
뛰
기록
##gami
불독
[unused723]
independent
러시아어
ballet
##henko
헬레니즘
cbn
##well
kata
##isms
Tren
##ales
deformation
98
1610
바이칼
nearer
결합력
##hism
abrams
silenced
##berger
##bang
estimation
정치사
만능주의
경동시장
원주
성품
nearing
삽화
운전수
scholarships
光源氏
무고
buddies
설사
##kon
we
##vich
##tify
belgarath
폐
##phate
대한제국기
cassidy
A
사인
rushing
slept
sworn
onslaught
기묘
causes
represents
levine
등장인물
smelling
##onal
라나
enroll
친하
기학
containment
malvern
ghz
터키
slavic
1933
designing
eggs
revision
paint
vague
체코어
회귀
프론트
##anum
tremendous
압록강
prelate
대입
reckon
법상
copies
華
baden
리서치
솔로
detective
des
algae
강구
notre
issn
관점
hash
보살계
말갈
jogging
cock
debt
buried
meat
셀레노시스테인
wondering
beaufort
angeles
vii
미군
##ٹ
대한민국
계통
antoine
pinned
징강당
루마니아
remarkable
##chev
물산
michel
##lves
##zhou
세라믹
103
##₱
tatiana
necessarily
지하자원
지그재그
보고
##market
총재
선거인단
행동학자
##志
업무상
charley
상원
1850
##ல
flame
finest
##was
女
stream
∂
rhythms
분수
이력
miss
jane
##az
rank
carnage
viable
stefan
[unused867]
explained
편리성
conscription
##‒
pursuit
yearning
rev
cartwright
##民
##anal
throughout
서로
유모차
ལ
cesar
두루봉
elders
##ᄋ
부끄럼
amos
안테나
⑤
চ
타킷팅
uruguay
hound
27
saddle
shot
##rose
deficit
baskets
승승장구
none
김만수
개선점
전국구
saigon
채용
바이어
재정비
지평선
모친
보이
##eed
‐
##ock
jang
disposition
inuit
italians
승용차
performed
자동
81
어초
당사자
굴리
bytes
한화
『
acceptance
nlar
区
[unused696]
julian
stake
급진적
##quette
생물체
부각
yes
kneeling
evaluating
위티
entirety
tentacles
의류
condensed
キ
##kow
birthday
잡아가
개막식
zone
왁스
##lke
부담
본래
[unused453]
본선
공문서
worcestershire
지우
디자인
##sle
flaps
신인
dogg
presided
tons
수론
현존
16
angry
trent
信
양이온
fis
deaf
합성수지
갱신
roots
펜스
stadiums
예술가
선진국
silesia
##bbs
수단
크레인
greenwood
고윳
crystalline
celebrated
uae
미소공위
oaxaca
bolivia
jul
constantly
լ
정식화
242
critique
경제국
폴란드어
such
medications
thwarted
craftsman
철사
masonic
processes
시골
limbs
fighting
김기식
ben
contributor
mace
서린
experiment
gems
##tha
##ments
jill
hepburn
eleven
속임수
georg
[unused427]
산술
tossed
ting
유치장
창조적
야
##atter
goldberg
miniseries
housed
survey
structure
사족
pathogen
setting
##ct
##itz
wrestle
##rco
alliance
[unused536]
##sity
꽃가위
bald
PG
복구
immediate
25th
##pton
hades
jillian
flowing
긴급
yarn
infantry
steven
##ook
##oa
sped
greasy
hornets
현대
stability
원래
쿨롱
##ট
스타디움
pp
softly
지도자
celebrates
##wice
groin
$
통제권
completion
cheers
민영
place
plans
applied
산성
hybrids
coyotes
화염
grandmaster
maguire
oppression
teaming
##ast
통합적
pcs
whitney
stab
malta
나치즘
statisticus
그해
torch
파괴
ᅩ
packed
imperialism
liberation
##大
rag
rejoined
##heard
horde
##bund
smiles
종반
qualifications
##kki
이탈리아어
brace
##を
##cope
전념
helplessly
괵수
gregorian
현대아파트
agatha
##tre
1737
kn
##cola
parcel
##tou
gather
CR
곰
rice
⁻
imperial
짐
셋째
##ो
[unused904]
대변
drifted
일축
whip
TBS
subcommittee
부진
augusta
jewish
幼兒
누나
კ
삼황
##ester
sewer
viola
노년기
jamal
converted
elisabeth
간만
관계성
##isha
backwards
bernstein
민코프스키
ᄌ
feed
연구실
지식
spectra
후속
panties
coordinate
자살자
inside
simultaneously
memorial
hellenistic
개별
aircraft
experience
slip
frenchman
[unused547]
[unused715]
gallagher
lamps
총무
##cano
brow
[unused829]
contrasts
athletic
wielding
아미노산
킬로
albeit
elevation
소프트웨어적
canton
nobles
학생
국립도서관
trash
trough
차
village
methodist
appointing
portage
swirl
mohammad
erskine
lankan
咸錫憲
hooks
김해시
healthcare
conception
prescription
joshua
applies
혼돈
vaughn
[unused563]
uss
##幸
##dron
writings
upside
berth
[unused507]
sy
1777
guatemala
##weed
葬式
incorrect
전면
barcelona
마찬가지
damascus
[unused388]
부호
프랑세즈
[unused929]
christina
##pathic
##œ
꺽쇠
judy
maneuver
인민당
##oi
mandy
asks
organizes
안타깝
알리
협성회
demonstrate
compensate
halftime
기고
gujarati
1876
probing
-
##liga
근사치
broadcaster
fundamental
renegade
떨어뜨리
niccolo
battle
山本喜司
단계
calendar
ث
murders
동위
sorbonne
accuse
sociologist
마그누스
감사원장
##ammed
과밀화
omnibus
79
대미
sheriff
decided
genes
부통령
revived
470
테스트
해병
globe
##iculate
시행
telling
nagoya
##wr
deported
##rsk
##▪
gel
visiting
##ffle
댄스
어군
commandant
stating
downloads
gamer
솔
zombie
rake
mentioned
brakes
경험주의적
##tension
혼란
양
쇼타
october
park
##皇
몽골
##tails
비합리적
투자
undergraduate
pace
법인
용하
1856
cleaned
safeguard
pin
continued
spur
본당
disrupt
insanity
재외
##dents
##channel
Barham
행성
포럼
도봉구
honour
radical
상대적
lashes
pigeons
restraint
к
communists
④
nfl
napoleonic
[unused338]
comedy
webster
staggered
##dha
출마
blanca
wines
약속
cap
야코비
##roll
tam
##宗
captains
세계
ewing
autonomy
노조
앞
katy
뇌관
화원
725
조상
cafeteria
듣
열에너지
한국형
웃음
associate
lights
##た
Hareket
unconstitutional
crane
널리
에르미트
relative
켓벡터
경공격기
corpses
tacoma
cyclists
prisoner
혁명
##uce
longtime
squinted
eastenders
figurative
sealed
도망
capability
차츰
ᵇ
oxygen
allocation
sleepy
##ege
노건평
▪
본관
neatly
##gree
ethics
가시화
clutches
명인
jets
탐구
일연
252
kun
becoming
##н
[unused221]
colonies
dive
순식간
outdoor
tragedy
복합
disciplines
##京
everyone
villain
한민당
salvation
62
##dah
문하
우선
bye
horns
lodged
premiere
ink
기형적
환상
commanding
ன
dixie
##ogist
word
##mble
다음날
mixes
##encia
tread
민요
files
서울시
h
표현론적
quantity
discharge
feeder
rising
역수
SOFA
##ych
갈등
비류
八
sitting
##usion
plug
negotiation
신설동
##block
demons
##esa
438
based
신
진해
쇠고기
시역
경향
traffic
conversions
##pping
##puted
태그
facilitated
pneumonia
최남단
바이올린
mischief
beale
보수당
##rix
사마염
miocene
배급
##kot
##御
1740
roller
conclusions
##phila
payroll
emir
##ddin
ground
따돌림
이라크
다물
[unused601]
resisting
citing
##ceptive
##oh
smug
산화철
로이덴
chief
함
##jiang
test
charlemagne
shandong
dealer
건네받
ditch
갈수록
##guchi
doc
casper
지검
이글
##uter
공격
직종
누리
文公
##ave
道
claims
malmo
신문사
묶
Boyle
dream
navajo
하드웨어적
handcuffs
browne
designs
motorsport
categories
names
surprise
torre
##chet
sticks
dome
##jee
equilibrium
##rith
순탄하
avery
incredible
SPSS
cosmic
만다린
게다가
쇼리키
resin
smoked
슈뢰딩거
요서
announcements
observe
상대
sucker
content
유고
dorothea
bastion
consistent
unwilling
diversified
report
보충
battleships
rumored
pay
rumours
rum
창출
copenhagen
##ph
##ena
[unused269]
tower
livingston
##rish
styx
safer
mine
해밀토니안
##strom
금메달
ㅕ
괵첸
enhanced
fees
implemented
##lal
낱말사전
aspect
upbringing
관례
anthropologist
demonstrations
motionless
filling
성삼문
술
mounted
chemist
gmina
carriage
filter
incorporates
##陽
##ᴵ
salvador
flagship
##ddling
squadron
gulp
jerseys
르네
##ರ
visually
##hly
harbour
적대적
##iu
hitchcock
competition
키이우
##dom
국사
sought
모
alabama
라이트
black
회동
##cycle
invention
hunter
닭고기
betray
canoe
기부금
중심부
secretaries
aft
##dor
메신저
י
9232
awakening
》
bandits
freddy
실감
글자
remains
augsburg
reacts
눈높이
explored
apartheid
##bery
철
1690
attested
arctic
polka
davis
phi
congo
sundance
denim
##hur
봉하마
여인자
garrison
deeper
disciplined
##rod
consoles
representation
근사식
헤이룽
plasma
##ᄃ
geologist
##3d
risked
draught
newborn
speakers
##53
naacp
기틀
asserting
커리어
북한
essence
[unused657]
saul
출산율
##oor
##chuk
불평등
acres
users
三
⇌
reasons
retrieve
з
nominated
ss
불어넣
cape
##umber
polite
fray
tobias
italian
lamb
[unused805]
##iga
‿
군환
도와주
tattooed
tucker
이하
newt
label
artefacts
##bad
spirited
vanished
덜
##illy
kellogg
pagoda
뢴트겐
치솟
lands
##kes
게
운용
dancer
휠
황종
hansen
그러면
##just
최종적
##tadt
감정
functioned
##ש
KF
##bolt
쓰쿠바
멀리
##tore
melee
번갈
##ab
ardent
ruined
정
##vira
만약
nelson
번호
open
parry
livingstone
예하
너구리
laos
재개
아들
invitations
E
##fying
##dge
effect
saunders
service
##khan
NH
겨울
stilled
창경궁
atheist
공리
공화국
CO
exchange
consulate
”
囗
elemental
수압
##ask
CC
마라도
yin
gabby
bjorn
zambia
3
mid
rainbow
analytic
documentaries
##shin
canyon
botanical
electro
avon
paxton
hermitage
극장
##rily
oakland
mail
patriot
bsc
##mise
surgical
CHO
定
cool
판이하
有虞氏
白
yanked
회복
정의당
annapolis
첸
투척
지기
profound
계란
blackburn
cuthbert
helium
suspended
[unused79]
biplane
으나
찬미가
rai
redemption
entertaining
discretion
martin
becky
외교관
12th
가능량
modest
tighter
avid
투신자살
urbana
finalists
창조론자
testosterone
distal
으리라
agreements
r
##inkles
Urey
γκυρα
illustrate
laced
##sef
에츠하르
preacher
takes
greeks
##ice
dyed
중성
켓을
reason
liberated
##rok
peacekeeping
국제적
오가
주재
clube
circled
##aire
₁
IUPAC
연기군
mmm
revealed
고속
카프
구태의연하
[unused232]
행렬
관현악단
jimmy
ন
pornography
cry
##疒
olaf
morale
별다르
##estinal
qur
video
왜곡
ᆨ
emergence
fundraising
원운동
vijay
로비
andrey
preaching
migrate
치누크
##unds
walter
synthesized
로그인
gradient
climb
[unused684]
##nesian
HTML
위상적
서사적
박팽
echoing
##gp
any
##fect
contracts
deemed
packets
밀봉
hauling
무너뜨리
trainee
ramsey
##ric
standings
statue
조석
즉시
interdisciplinary
eritrea
flush
[unused651]
ə
삼릉단
heat
essays
##rook
##urgent
군사
이상적
patch
기타
##ives
앨범
또다시
scary
leaders
zachary
egyptians
gale
stubborn
아사노
valiant
lithuania
수수
targets
missionary
##ndra
임종
passing
##£
unincorporated
아제르바이잔
algorithms
##yler
alberta
현행
sooner
phrase
classed
156
westminster
slung
fingertips
내뱉
실용
sagged
uh
reporters
법통
fifa
중소
lend
[unused531]
황색
가동
값
##life
particle
국회
##bled
keynes
shire
유교
뚫
ড
평화
變徵
victorian
ₜ
antibiotics
인내심
vet
##e
montgomery
[unused828]
파장
문화권
포르트너
구릉성
충족
missionaries
shades
averages
##ʰ
계기
shift
##scoe
interpretations
р
##ent
로켓산
upon
abandon
만우절
channels
portal
에르야만
cyril
##open
##eye
[unused396]
에서
wins
엄청나
##act
outdated
beautifully
##ggles
##write
schmidt
조이스
##rin
ballistic
solicitor
squadrons
##earing
인상
1651
signaling
하수도
pigs
　　　
guerre
inscription
haley
chuckles
##र
leningrad
##ड
연역
##ے
현대건설
##力
habits
bali
떨
accepting
##hampton
[unused722]
이상배
allah
recruit
juventus
군집
UNICOM
federation
불연속적
밤하늘
criticized
연행
dana
replies
마포
##rise
경공업
progressive
forest
최루탄
metropolitan
자석
##able
reconcile
이집트
ix
##(
usage
##uda
최한월
##ovich
mickey
protectorate
산업
centrally
##iya
honesty
bully
데
구야국
malik
embarrassed
boise
##zzy
나쁘
ashley
代數學
헤게모니
하드웨어
오른쪽
destruction
commando
계동
서러브레드
buenos
부부
ucla
coulter
streaming
방송
illegally
cynical
exited
괴팅겐
impatience
메일링
나치
intersections
##vine
mushroom
1874
verification
tiled
##slin
stakes
pity
[unused791]
natalia
wo
##puri
입지
career
병사
##ose
normally
mckenzie
sonya
mandates
trump
bobbed
rash
##ant
##lka
악
bond
migrant
조지아
무효
shooters
재귀적
scottish
북악산
princely
묵과
##ʳ
PopularMusic
playing
##es
개칭
elect
현대산업개발
crack
sewing
파인먼
existence
equivalence
##iger
##ity
울릉도
derby
信天
독립국
maddy
guarding
신고서
##58
##lett
양상
데이빗
militant
배달원
charlie
cheryl
princes
NSC
수락
pun
빗대
##tens
independents
violently
##zar
people
##combe
평의원
진력
평론가
composer
승부처
그리
관측자
gigs
##tures
out
tobacco
비가환
stellar
단층
facilities
acacia
[unused857]
##boat
nightingale
유동성
정자
southland
[unused238]
맞물리
##cy
진왕
직공
판매량
##ye
socket
[unused394]
quarterfinals
embroidery
carving
昭
comparisons
기피
서민적
안
suppliers
메인프레임
footsteps
cornwall
napkin
몽강
##nished
vascular
##у
beyond
백지
venom
felicia
켓은
##pm
yanking
야자수
교토부
##het
flower
수직
Special
actions
정부
도브
유치원생
commenced
coup
26
sock
##ume
mental
##aj
소원
impetus
lebanese
requirements
promptly
stove
locality
adapting
aboard
##т
내걸리
##iana
땅콩
제곡고신
병약하
shannon
deficiency
curled
carried
°c
##llary
아랍에미리트
구면
grimace
[unused950]
세갈
highway
[unused211]
peace
경성부
scratched
자본금
brings
crimes
연관
wickets
국한
salvage
interest
##27
barbados
clashes
verify
transformations
하이퍼
생태
전문학교
그룹
brewing
weave
rumbled
finch
##escence
##enia
waldo
fe
compiler
cab
mauritius
쏠리
서부터
[unused877]
상기
월스트리트
hypothesis
반사회성
이스케이프
업데이트
연구소
[unused826]
호
maxim
무
장의
##ere
525
南宋
독재자
ʸ
개사
glover
hog
전전
정보화
##eta
spirits
fare
semester
아이작
flanking
국무성
##phs
associated
spent
업그레이드
frigates
金赫
김포
lansing
다양
고대
succeed
[unused683]
krakow
surprising
방류
landed
illuminated
無理數
│
drawers
포르테
Staatenkunde
wcw
급속히
greeting
##ذ
considers
4000
overlooking
##otti
##etta
argued
ric
##ck
invitational
morrison
재미
ellis
##yya
reunite
singapore
sidekick
실력자
호기심
medal
bayou
[unused796]
glen
remarkably
##hiti
증상
케이지
fleming
##ola
apes
##gui
duties
demand
premiered
##32
multimedia
비극
melbourne
##pkins
동아일보
edges
지배권
trivial
darling
vernacular
##lak
thugs
punk
reveals
무기한
얄타
canadiens
impoverished
frowning
manfred
##far
경춘선
haunting
Gilles
DRUM
www
advocating
sober
ʷ
##bil
rv
regan
ո
provoke
쪼
frequency
광화문
##ר
##ves
goodnight
##chel
anarchist
토착
unions
##ading
е
jan
아타쿨레
영문
flourishing
2028
투신
음이온
##ication
orientation
ল
유지광
환대
첩
Please
infamous
realities
헌법
sucking
서방
로리
붉은색
nickname
083
전화
values
radically
口
종동
principal
ecclesiastical
##arts
918
nape
1877
array
exercised
sud
인공기
##м
내각
explanation
자연환경
이정재
##nal
blocked
jamaican
평소
rbi
arrows
framing
beacon
[unused895]
1854
##ense
베어스
palestine
##ong
##র
27th
##np
민심
치킨
qaeda
cages
##art
confidently
형식적
leisure
집중적
호르몬
채우
ᵀ
Volhynia
##lights
##case
misconduct
##目
퇴계로
claw
##ipes
ke
채
door
##sfield
patton
점철
gods
Chosen
[unused69]
##dorff
##tip
풍요
##dai
1906
[unused131]
commenting
stampede
cologne
archived
합숙
reacher
##cz
구제
destroys
[unused180]
##tsa
ending
##zal
무장
상대론
frontier
foothills
hodge
⁶
즉
superstructure
strengthen
詩
최신
##星
forecast
arjun
##ror
destiny
으마
thick
juliana
torso
illegitimate
mollusk
assessing
적분형
oak
##tica
아원자
배수
novelty
##ering
worshipped
mon
revisions
oil
##win
gavin
originating
share
##ₗ
광학
sheikh
chariot
sean
##tua
##ided
##37
յ
deposed
tombs
ANSI
always
지성적
역할
내내
[unused64]
##tres
arc
expulsion
케임브리지
ellie
##ball
한남
##tangled
클리닝
##rou
국세
1895
teams
santiago
boasts
복종
skinner
만만하
tram
about
이권
deposit
##amy
orson
wounding
sep
fatalities
요시카
손실
israeli
산화물
산키
고궁
건강
drone
brink
fountains
chance
janeiro
##zzled
fiesta
주관
한남동
베긴
similarly
Dawkins
53
1579
fails
artillery
adopted
감자
주기표
승강기
bosnian
ि
초
[unused48]
별빛
calculating
##eson
동유럽
추대
nilsson
배신
[unused56]
##bles
일처다부제
cameo
steelers
결심
##rao
sam
츠크르크츠라르
conducts
fridge
ᵍ
영토
sparkle
얇
제작
하이드레이트
richards
김
##stle
michelangelo
smiling
foraging
constabulary
inviting
bergman
metal
##3
replacement
李
증산
##⁵
융성
##d
campeonato
austrian
muttered
1652
harcourt
##ʼ
walkers
audition
identities
posthumously
ambushed
petersen
지속적
seek
contractors
inca
히키코모리
[unused919]
balkan
행세
##istles
possess
##aud
nonstop
배구
configuration
remix
##rcle
bravery
ferocious
willie
appliances
swiftly
consent
her
diver
musee
##up
티그리스
체육
동맥
welcome
breach
whaling
translit
실현
exeter
전연
troubles
규칙
noble
##men
##nto
특검
commerce
shelly
아이오딘
시바스
polly
school
drives
stakeholders
인쇄술
abandoned
reinforce
시끄럽
az
provider
ic
practice
방향
##さ
delays
라빈드라나트
##ddy
warehouses
cubic
amounted
초동회
전문지
enlightenment
worthy
trenches
##ω
resurrection
intersects
칼리지
caine
coined
vaughan
##≡
’
44th
shadowy
aired
언제
pri
filtered
corners
이사
the
미타문학
municipality
dragged
registration
검색량
##rp
전위
시스템
taste
##ographic
worth
1802
##cated
##erik
극심하
##ei
anastasia
uno
무조건적
applications
조세
contradiction
sacks
voices
124
##bilis
paranoid
marche
warming
ㅂ시오
통일적
William
##ᵈ
cadets
chan
중학생
ט
[unused29]
gu
jeans
예외
kilograms
somewhat
vent
182
[unused287]
##pee
브랜스
공간상
coordinator
hd
주저
livelihood
이닝
softened
[unused716]
##ulio
##ʊ
beetles
ے
city
##ff
##llah
millie
모범
draws
transmitted
facade
bride
vastly
야행성
basalt
속력
적합
announces
indicated
casey
178
##江
am
1832
화법
zionist
##iting
austen
egg
##urt
쿼트
breaststroke
##sho
doubts
##ᅩ
occasion
옥스포드
banished
장례
##eki
talent
frogs
표범
neill
pause
글루타민
santa
[unused568]
palace
gloucester
1961
그림
surface
넘기
denominations
proper
찬사
##enne
musical
1966
festivals
elm
panting
실험
biased
##mu
imam
아시아인
독학
vibe
해례
justify
##script
[unused142]
일대기
강역
호령
폐위
히로시마
배아
##lea
가즈히사
다소
durban
roofs
gunnar
걷
##lase
##zard
pronouns
md
n
[unused788]
헤르츠
astronauts
closes
특성상
qualifiers
접착성
moth
travellers
정전기
subgenus
fashioned
1830s
평면상
거짓
##ᅦ
ventura
염색
도래
heller
death
간조
darrell
##amps
공모
##ᵘ
discussing
설문
sunni
suck
nouveau
lanka
pumping
조밀
전치
skate
대출
몰락
columnist
glimpse
currents
unfortunate
running
pembroke
quilt
##ots
[unused165]
ensuring
shop
1813
앙케이트
도식
은메달
assembled
2010s
##chon
hyun
breakup
상류
vh1
천주교
적극
conducted
newport
##aya
교회
発
prakash
milestone
refurbished
##tituted
적어도
devised
관광지
페트병
모르
正音廳
통역
fortunately
83
왕성
[unused280]
byte
억
한국항공우주산업
check
베릴륨
consecration
진기
댓글
vulture
흔히
robots
℃
생성
personality
三皇五帝
배경
컴프턴
receptionist
가정하
[unused727]
tolerance
minute
380
aloud
##athy
갈릴레오
LL
tire
vegetation
shade
재능
weapons
periodically
心
gothenburg
satire
announced
ono
cutting
voltage
gesellschaft
통천
medicine
collaborating
1881
총통
translators
철쇠
서하
solution
STAP
##try
주미
stepfather
overthrow
##bble
demetrius
plainly
##13
375
##ending
maximize
dame
天
histories
Massive
mildly
stuffing
문화
concealed
inhaled
style
consulted
odi
은유
wrist
제순중화
차리
sauce
##ciation
interference
submarines
과학사
variable
도리
momentary
초전하
corp
ignored
spot
visible
free
김해경
거주
##enberg
강간범
bundesliga
colt
aluminium
wainwright
internacional
monarch
burned
pie
원자바오
wolves
cop
##hom
writes
광나루
leadership
##rator
horrified
seller
sharma
탈수
한창
moans
##cum
정칙
disney
韓國
horribly
unfamiliar
tack
서북쪽
told
새
갈라서
sofia
bn
##ভ
writer
이것
仲呂
essential
630
반국가
가죽
원인
화로
##cos
ios
본격
pacific
diagnostic
intrigued
summoned
훈장
역원
습니다
수산부
수구
vatican
노태우
brightly
dishes
##posed
hesitated
ferrara
funded
illness
aristocratic
freeway
insulting
kite
능력
graphic
341
##ysis
condom
toned
serum
##ᅴ
##bas
harness
##wo
chloe
ropes
日本
bumps
routes
brat
##ო
ill
즐기
sprinted
1073
apprentice
532
mecca
영월
히데키
lopez
hay
섬기
말레이시아
sabres
seated
snaps
ticked
reconstructed
의혹
일국
patrick
관광용
##zone
갸루
소녀
부천
weighted
recreated
cbe
bearer
grape
scooted
K
end
fraudulent
인종
법치
대항
zagreb
shiva
근거
inflammation
vo
정동
impairment
francis
帝高辛
govt
선철
notwithstanding
collegiate
stump
spine
카레
public
50
대흥안령
starboard
humiliating
involuntary
heraldic
분노
ы
금관
longevity
千
quantities
mile
team
##world
야마모토
eh
chronological
impact
nurse
graduating
부터
thee
stil
수돗물
##bed
베니스
스키야호즈
정교회
winnipeg
knocked
표집
sage
memories
##wart
politician
teammate
1941
##agi
command
定理
유명
[unused90]
##eri
##っ
accelerate
mp
bogota
mortals
∩
##ilde
[unused927]
Steven
##⽥
oleg
hughes
##unt
##ひ
폴란드
refreshing
##chment
scouting
심
produces
쉬페르
##zhi
promised
pads
breeding
towering
alfa
선율
##used
prize
lawson
북사
mocking
[unused115]
drunk
negative
wrists
홀데인
⋅
##xie
presbyterian
ɨ
worry
permitting
maximus
poly
종동절
##م
청소년층
wheeler
##cased
##phile
egyptian
세인
客外
산업용
philippe
insurance
resembling
affecting
[unused731]
resorts
작가
encouragement
1697
lass
입신
vichy
gambia
##km
district
equally
depleted
scientists
##it
regeneration
처벌
업종
struggles
##opped
orion
flung
페르미온
disappointing
beginnings
madden
property
derelict
바르셀로나
neighbors
risks
panchayat
robbery
isabelle
##kney
commons
unison
manila
fences
mandatory
##he
배포
연금
아르놀트
성
[unused960]
##sov
##р
hayden
김치
burden
reception
후쿠다
연구자
radha
storylines
likewise
darker
##uls
주축
子
국유
달걀
connectivity
어다
fractured
brown
##americana
남해안
##面
강입자
merton
멕스웰
bankruptcy
밀수
temperance
zipper
방
jameson
instances
‚
불곰
##gler
항로
blackmail
hunting
announcement
[unused744]
iraq
boss
zhang
이스탄불
트집
소세키
영웅본색
民國
solos
겨루
lawsuits
지역등권론
侍
metallic
rub
끊이
predominantly
자매
reactor
[unused707]
constituencies
plume
）
비록
전화번호
cracks
pigeon
trade
transportation
양성자
engage
rockies
대원
impressive
matched
원심력
하중
포타슘
form
##tad
저지르
##loading
작위
verdict
증강
soil
spun
52
39th
##hesis
뉴욕
##ふ
통일체
niagara
incentives
oceania
칭하
305
공사관
합류
topics
비난
연구
경
cannes
폭증
might
##kawa
Black
[unused235]
##—
##lli
##mus
강사
북연
1726
securely
nut
고객
인계
kerman
임진왜란
##lin
오스트리아
teased
hurt
벌써
작자
sheng
##mics
kindly
동인지
delivers
펄스
##ssel
releasing
climates
luca
##尚
[unused810]
huff
중려
joining
##lor
tendencies
encompassed
원음
hyundai
네트워크
glue
queue
##taka
gland
philanthropist
진달래
studies
tuna
koreans
##itical
[unused475]
##iae
폭력
undone
누구
##ructured
##《
##mah
flop
Descartes
##sur
my
상대국
위주
가나
scattered
athena
##egorical
axial
그리고
vargas
1818
원통형
shaking
金
중앙선
局所
garion
economically
procession
mergers
relief
laid
원자력
콜라츠
spade
##₹
sling
bernard
prices
poured
유력시
##rug
origins
educator
perform
ordnance
olson
bryan
과도
후미
suburb
다는
fairy
수시로
비문
##iated
honey
untitled
embark
##nen
사교육
　　
sophie
attitude
typing
창작
##achal
[unused686]
cabinet
vitro
불어오
책임
terrified
hysteria
전두환
justin
attendant
ㆆ
307
중형
avenge
##oic
jozef
tray
roofed
booklet
pilots
상대론적
speculated
tolerate
issuing
##usions
##fied
tying
gunn
핵
원격
최근
##uming
projections
자금
##vera
ballroom
batting
Stress
irwin
입자론
##uring
올리
##出
alias
중요
boston
pollard
reservation
낙산
newspapers
간악
cautious
sandy
합병
enhance
고온
revive
socialism
cooperation
repeated
##tted
의병
##law
manage
consensus
automatically
hardest
barbara
##say
##fu
carmel
attend
pop
carriers
##ry
voss
sponsorship
ethnic
조선일보
isil
##bek
카타카나
researches
revolt
213
timeline
조
第二雙曲
andres
수용
personal
##6
[unused642]
lyons
decorate
threatening
adrenaline
##sters
ʎ
##tri
데카르트
건호
resemble
rendered
개선
구십
sugarcane
##ত
protections
대부분
tunic
heavyweight
피해
thrusting
##ezer
橋
교육비
라쿠호쿠
guyana
후임자
primetime
양자장론
floor
##ked
thighs
sorcerer
horne
refuse
베오울프
regulators
secretariat
springer
가락동
discourse
##天
ク
topping
thinks
mikhail
contractor
ᶜ
learned
gone
ted
An
caliph
followed
fugitive
yoon
차용
전라선
주력
두자춘
explaining
지향적
물려주
손잡
##hima
177
vietnamese
museums
shelf
파프누티
##ович
예니셰히르
##igan
[unused325]
assigns
경마
##osis
europeans
duchess
총수
방지
invertebrates
statistical
dignity
forster
청계산
sweets
adamant
비핵화
garde
325
moreno
위세
그로스
##jhl
showcase
우리
huntsville
##aa
wwf
invariant
sulawesi
chestnut
종로
trickle
##week
관상
##cek
북양
##kled
도브루잔스키
rq
건국
[unused296]
543
iraqi
갈색
##class
exercising
impressions
warring
proceeded
##cer
모로
문과
sharp
governments
homosexuality
##ws
00
counterattack
납공업
siberia
nova
bolshevik
창간
파송
ᵈ
泥峴
##rini
냉각
##nac
wal
bang
hatred
∇
torn
mack
민족주의적
ξ
identifies
stool
##谷
l
세포막
lyle
옷감
leith
centered
barrio
gill
hopes
143
begged
장기간
mortgage
bra
recalls
##ri
관심사
fernandez
rhys
explode
캐스트
[unused634]
1200
steered
##shore
##orra
##onga
블랙호크
personalities
dolphin
문화방송
##б
부도
##apple
##nna
hindu
광자등
joey
구동
holiday
[unused968]
died
필하모닉
padre
bachelor
데생당팡
hundreds
cricketer
##ier
드미트리
나루터
biography
야스마사
##仮
reminiscent
honoring
ultimatum
##ts
mla
줄이
##field
##ishment
르베그
kimberley
[unused462]
pomeranian
말갈족
display
evacuate
##grin
projected
brigades
##zd
할거
돤치루이
[unused951]
##ハ
반복적
auditioned
마드리드
##8th
recapture
played
moan
교집합
temps
extinct
☆
##ml
[unused345]
빼
Libre
##mond
callahan
뛰어나
troopers
circus
##eborg
음악원
육영수
cr
PIE
generator
#
usher
convinced
##deh
SR
forgiven
막심
light
羅生門
은하
[unused894]
preschool
장거리
س
seen
pavel
돌풍
crises
##沢
빈소
##chus
nell
조순
##giri
Cumhuriyet
saturday
아기
flooding
연락
transforming
fishery
샌프란시스코
dye
pauses
abstract
alerted
ㄹ까
carry
누
##leton
기묘하
##iff
##iac
즉각
mill
harmony
대향
닫히
papa
mayhem
[unused405]
indexed
불교계
privacy
grammar
##mable
820
monastic
stack
psycho
sergey
laundering
whom
exceptionally
harley
독일식
jessica
knotted
parlor
週期表
사항
##~
[unused987]
barbarian
279
##前
auf
唐
retailer
##ception
종교인
보관
investments
ر
ン
국산
rams
drosophila
##mt
cleveland
##raph
rooftop
fielded
##khov
이진법
lava
haydn
마이크로소프트
impression
##fs
침엽수림
engages
석회암
430
technician
rn
사무원
advantages
either
royals
##ssing
stu
launches
학문적
airmen
histoire
##idi
c
영현
outer
grouping
해
남서부
sue
satan
수석
grade
hoarse
미시령
anne
개발당
##dis
violin
##vious
ultrasound
강남권
visibility
promoters
##ท
영세
haze
eventual
##ient
정수론
vie
##³
세기
vapor
##ghi
도자기
massey
다수결
gettysburg
feet
skirts
love
화하
monthly
pizza
베기가위
meredith
jed
피치
##text
문서화
codex
rural
통계적
heroin
single
[unused281]
##rem
novella
아미
hayward
distress
conversation
##ths
voluntarily
우방
overlooked
##stan
최소
운전
공국
똑같
controversial
##ure
##insky
amor
lissa
##学
지하철
##dles
철학적
sewage
≈
psychology
프른즈베르크
[unused57]
pattern
partial
occasions
ncaa
shankar
##ט
agents
galley
disappointment
천황
가로막히
생전
suffers
walsall
통설
bea
스물여덟
무작위
quentin
aarhus
locking
재정부
kwan
##kka
delle
ᵐ
tank
[unused118]
mandela
[unused776]
gustavo
##90
디리클레의
archaeology
salem
신흥
환도
##thed
warrior
franz
hint
스텔스
rapidly
사사오입
02
수신
worker
퍼센트
폭침
##rvis
들리
공학
[unused779]
builders
account
Volodymyr
해인사
galloway
##事
plain
##lco
commutative
theorem
temporal
revolving
fifteen
확증
idea
[unused855]
##vey
effort
qui
denomination
충청권
##eurs
weights
honours
speedway
##eptive
찰스
tapping
##zko
꿩
shocked
canine
線型結合
질병
투명
물리치
관리권
futile
기술적
collisions
multiplication
기쁨
gem
엉덩이
tuba
collapsing
##hend
bites
pastor
인지
communicating
micah
cosmetics
elected
##stead
더라면
mammalian
compare
hut
폐허
shadow
달라지
[unused493]
宮
starting
soldiers
##rky
erich
proficiency
코미디언
레기오몬타누스
doom
[unused882]
국내선
vacated
suffer
alexis
##gence
legal
backseat
603
heroism
indies
passive
premiership
downloadable
anchored
purchases
시조
Alston
2987
cote
ville
vinyl
reflects
GM
thursday
descended
taluka
스님
dish
plump
##ricting
stops
pilgrims
decide
창제
##urable
전년
monarchy
routing
wolf
hurst
subtly
tenant
Guidelines
prevalent
inspirational
농구
pioneer
1634
skipped
[unused55]
##taro
ecumenical
recognized
으로서
whisper
내외
import
originals
aggressive
대응
exhibitions
underground
additional
quickly
hawaii
전조
geo
896
점성
grayson
십진수
-X
འ
pupil
thug
발목
등호
혁명적
라틴어
binary
believer
##sure
성과
norm
democracy
promote
ironic
credentials
##enes
slug
weekend
maclean
[unused228]
prayed
bingo
##ה
confusing
book
주자
##lini
gina
[unused259]
間
##tf
##lative
bulgarian
原動節
명확성
щ
qualities
##bai
##ashi
cleanup
정확히
toes
kingston
리터
cheltenham
비티
csi
정파
[unused27]
##tam
theirs
stocked
무려
야시
lilly
##tively
21st
landscaping
林
##あ
preston
scrape
html
원작자
##ra
cage
dimension
pony
복벽
catalog
저인망
##30
relaunched
발명가
bc
easing
왁스칠
deserted
루프형
sterile
출근
novgorod
##endez
bach
을
회유
##achi
원론
view
don
RAD
되찾
dungeon
takahashi
debts
continually
천민
fossil
essen
detector
[unused567]
hangs
##pers
##kind
vocalist
correspondent
whorls
##harat
anthony
화성
भ
regulating
sensible
bitch
dialects
cactus
colorado
병과
equivalent
Kore
몫집합
##imum
##bola
키플링
partnership
jesus
farrell
crashes
[unused399]
paradigm
토마스
대의원
lublin
smoothing
자유자재
montenegro
nun
우루
conservative
阿
regardless
and
owner
해고
[unused645]
##phone
수퍼퓨마
peters
yerevan
operatic
residing
도트사이트
necessitated
두
짙
##uid
양변
laura
burns
##ul
박람회
տ
predicting
마이너스
bullshit
polk
figuring
costs
borrowing
객관적
문화재
hampstead
elle
merge
libyan
iso
르클레르
pose
##uche
단면적
평론
attacking
정윤
plausible
2500
countries
##¼
물거품
anxiety
見
cody
permits
행정상
##mic
청와대
FA
military
innovation
선선하
들어가
298
exemption
베이징
स
clothing
##ael
fifteenth
jay
booths
kissed
##♯
##cher
1965
1416
appreciated
electronically
razor
gilbert
##illon
##ady
제련
diabetes
##5
고마키쓰
hurricanes
rigid
입건
kilometres
quinn
motivated
wendy
범주
원자핵
lyndon
##belt
greenland
utilization
편하
수보드
[unused402]
Kuulu
강경책
fiercely
##ifies
cypress
capcom
청
quietly
rowe
pleasantly
madman
lev
discusses
occupational
placement
대학
calder
마스
markedly
스포르
외국인
exhibits
lucha
광고료
constraint
IT
티왓
tractors
대조적
ceremony
##yman
송전
covering
এ
##ree
stephane
扌
garland
##tom
yankee
woman
금제
안티고노스
03
<
이르르
##while
intuitive
##nted
vulcan
##phic
latvian
[unused470]
foreigners
##hd
##tile
rotated
배타
yeah
coast
##ロ
351
beaches
colonization
##خ
北
thirteenth
links
##ctum
bled
##rop
cracked
##alic
joked
용산전자상가
saxony
astros
magazine
concept
위반
##ifier
homosexual
battling
##い
구하
##fication
[unused461]
##eres
mercenaries
[unused236]
pathways
sociological
miguel
##sson
trumpet
camping
송산
grandmother
madame
uncredited
편미분
brandenburg
1829
수리
alfonso
라스
쓰카모토
외
susanna
세포
ct
kind
sting
440
celeste
혐오증
answer
polynomial
##oris
rex
cora
mosaic
##craft
sarajevo
intervene
circumstance
privateer
무죄
bubble
giles
##tze
lured
header
apek
likelihood
monuments
graduates
bhutan
필리핀
들어차
##hea
[unused677]
cliff
##rane
jimmie
松峴
352
rudolf
힘입
136
##vao
실용적
roosevelt
combined
lads
supplier
responses
jacket
punishment
discount
이상
coasts
administer
펜로즈
핵물리
deborah
[unused134]
640
리뷰
사병
lok
유아기
가회동
mysterious
adjoining
1729
spectacle
hangar
에다
afi
glitter
pendant
정례화
dimly
pl
##kaya
##oli
complaint
soap
아스파르트산
여름
##ख
##bs
committees
fantasia
moisture
황후
manpower
##rde
squirrels
간
zurich
stern
새천년민주당
##lt
continues
얼굴
unusually
expeditions
fra
##var
체비
african
born
세력권
푸코
상관
원시
caspian
수송기
diaries
중동전문대학
hiroshi
체르노
axel
bookstore
adolescents
매일경제신문
normandy
42
kazan
shocks
lyman
핵융합
basically
보리스
##tment
국공영
간행
[unused89]
##bury
교리
yourselves
چ
merrill
##nism
organization
모임
days
thru
SNS
pbs
##ة
raged
chandra
##mie
messages
##か
피시
집행
##emann
어색하
actor
##mo
coupling
nothin
켤레
ltd
겠
##hian
couples
index
##zie
disciples
predecessor
이글스
기타토시마
##xious
gan
##ique
무스타파
ﬂ
41st
plato
##μ
1972
kicker
scout
hara
논두렁
##oki
탱크
##ited
dublin
ample
[unused947]
##makers
ɾ
intercepted
갈라
veterans
크로커
학위
##nage
babylonian
즉석
teen
gasping
backlash
풀이
himself
브라이트
meantime
화산섬
both
##ni
vikram
최저
아이템
coached
thereof
degree
tournaments
##श
following
불꽃
painter
##tist
quest
noun
tucking
갖가지
showers
##off
나오
상인
bombed
양자론
기쁘
증가율
adaptive
##suit
applicant
markers
##ith
sidney
trades
desert
벗어나
bug
emphasized
recreational
220
housemates
craig
##quisite
andover
chef
[unused523]
흐르
평안남도
wig
kashmir
compositions
##us
##ossa
گ
적외선
flutter
epic
상대방
bowler
[unused47]
학대
튜플
bombardment
특정
caller
태평양
##emy
produced
##oro
풀리
짱
영업
table
정체성
공
ste
bottle
파탄
지점
monitor
복권
##vah
##cute
晉
테이프
##iv
PCS
hybrid
photon
##lia
1744
gracie
동호회
[unused96]
scholastic
christensen
lens
저임금
sierra
blaze
phoebe
괴리
electrons
野和三
dolphins
bulbs
##creen
브루스
##cloth
cappella
治
scrambling
kidnap
herbert
webb
피타고라스
manor
상하이
unsure
재물
confederacy
[unused948]
수천
간절하
1923
##pack
lining
창업
trap
treat
굴뚝
...
ท
##urbed
##ee
centimeters
##ona
witch
수수께끼
regret
mg
일정
청산
##sies
공감
둘째
##skin
[unused395]
genocide
##lice
고전적
##static
##jas
[unused553]
##ety
1794
seneca
socially
voluntary
크롬
반증
rate
teatro
tongues
pioneered
##dates
노스
eyebrow
wilder
누피디아아
서훈
교착
sublime
holding
국가재건최고회의
geometry
곧이어
п
산업화
celaena
彳
visa
게끔
gary
appointments
##ifer
aiming
selecting
모든
두각
ultimate
sable
variously
지나가
travels
yarmouth
interested
brave
dean
##ue
열기
hackett
대한항공
##oides
organizers
##chase
9th
1970
추도
번성
united
동기
mead
begun
##dian
담임교사
marked
##inations
welfare
packers
1882
challenge
대규모
proto
쿠
says
drainage
라그랑주
##oration
카바클데레
rob
##tel
mina
##hot
methane
defects
[unused842]
이때
libby
리니지
analyze
잉크
국정
발사
winston
일단락
조계종
[unused62]
silas
그래픽스
saber
松山
fragrance
metals
rand
으뜸
timed
vr
따르
파인
paulo
신중히
寵愛
##caster
히사
##asurable
converting
carnival
60th
단절
cartoons
순전히
형평성
albuquerque
UCAV
duel
말미암
성남시
sedimentary
nacional
581
ti
cherry
[unused185]
kilometre
질타
stand
한편
syrian
rosenberg
zeus
정규직교
[unused75]
五
preparations
shaggy
커티스
[unused279]
emmy
문헌
iata
꼽히
creeks
진자
baha
양적
म
sabre
champagne
정당화
strasbourg
entrusted
tbilisi
역방향
##oft
dallas
제곱
groove
prodigy
showed
차수
substitute
생가
kara
UH
권력층
buckingham
chaotic
preparing
surrender
idiot
tempered
dignitaries
protested
중독자
create
##ung
##eon
Sample
창원지검
dresser
mathematicians
##house
brooding
execution
완료
quick
##ehan
vacant
##hp
吉
##cie
##shi
당나라
##das
kelsey
nearest
bristol
san
benefactor
부조리
##hab
bark
consumers
朝永三十
찬드라세카라
하인츠
케치외렌
스파크
although
chairs
myanmar
grin
##rber
독자
sandwiches
##tight
뵈
[unused717]
な
mayfield
총선용
iroquois
mediation
##uca
umar
익일
##forth
spoil
격감
provocative
suspicions
dr
slide
RichardWagner
nikki
wembley
##ted
struggled
##sight
pictures
judiciary
Mann
1916
[unused770]
초중력
슈라이버
detached
¨
[unused369]
southward
총의
dh
휘말리
petals
오리지날
텅스텐
utilized
우라늄
##buch
spirituality
사영
표현주의
matt
##lie
disability
wellesley
antics
YouTube
surprised
##akh
assist
##lizer
級數
amber
ernesto
ʀ
185
shortstop
투자자
[unused42]
##nch
latch
205
총계
knives
stronger
직하
cary
옥타브
radius
speeds
공백
생중계
##se
gaming
##mine
toyota
speeches
일상화
originated
##sphere
열역적
bern
charleston
##vinsky
alto
crows
quad
황실
confessed
광주군
일간지
kilkenny
서당
academia
미니텔
contrasting
cord
일반화
##drive
lehman
boring
##oop
chimneys
구조물
분배
##こ
crab
사회적
stanton
projecting
museo
아내
sizable
골드바흐
constitution
##lization
벽화
exposed
texts
trek
jenkins
adored
nets
commissions
price
flash
internationale
cozy
이항연산
multiplied
triassic
오드아이
guarantee
margin
후예
##ivision
##duced
##rdial
hutton
초구
dir
##nah
##tery
##ance
려고
##ʃ
베트남
fixtures
터널
검산
족
token
oilers
##♦
이철
055
vigorously
부엉이
다운로드
순서
핵물리학
loren
비롯
lid
contemplating
157
##ual
classified
susan
solemnly
coronation
chunk
조직
loco
anthology
forgot
asset
favorites
walking
##75
##rgo
nos
し
puck
인사이더
##ep
མ
meaningless
carr
hampered
당원
잠깐
boasted
비웃
##জ
collier
dealing
760
메르크
overseas
궁합
snatched
★
surveyed
##oder
신화
austin
rubber
outputs
平
비탄성
선형
##hair
##tes
ulrich
rained
파괴적
dots
KKK
gall
사돈
##kle
platt
인구
[unused528]
volleyball
##‚
반열
무겁
학계
들르
volumes
현금
unclear
##উ
중년기
통치
농경
##metry
observes
더블린
rosemary
fist
##sley
##ে
여의도
angular
화기
Marga
client
concentrate
hips
scenery
[unused22]
opponent
##dity
purification
##rc
[unused719]
cargo
artistic
finland
한화갑
자택
연합뉴스
북태평양
께
equator
위키백
motorcycle
패권
박정희
북한산
interpretation
temperate
unicode
clive
##rrier
##ductive
playoff
stalks
자본주의
wallace
일부
정치군인
herald
mit
황도대본
re
ᵉ
ghana
narrated
##less
특이
유학
고종
##basket
khalifa
transfers
millennia
##aly
cooks
do
나라
directorate
##100
cows
wilkes
pinnacle
dawn
##hausen
strikeouts
##ert
luminous
programme
##pment
impress
분담률
건너오
divisions
마케도니아
advisors
saratoga
촛농
가타카
응시
바인가르트너
astoria
##ད
relocating
librarian
##osed
dom
##ndon
taxi
songwriter
##ada
grave
iqbal
##≤
앤드루스
##ely
목적
thirst
ottomans
cue
ezio
sheets
부문
noteworthy
착오
velocity
emerge
nancy
사령부
falcon
because
stealing
indigo
공기
blank
particles
introducing
memo
극동방송
르죈
##aea
ROK
그다지
Justus
forte
잦
##চ
##park
leash
평등
cambrian
720
아이소류신
australian
homes
[unused321]
재편
##rum
tail
[unused619]
탈바꿈
stepmother
scale
parkinson
##org
##п
달러
fourth
biggest
traditionally
dying
##zell
[unused780]
anyone
##gizing
douglas
朝鮮半島
dusk
하위
providing
아벨
##gum
행당동
badminton
##hli
##rford
선전
[unused685]
julien
insulted
소련
guests
elephant
劉宋
endless
vis
전설적
interviewing
1928
adherence
colonel
enrollment
pastry
confusion
##dur
discontinued
매니아
dependent
guarantees
교내
pertaining
cheerleading
무릎
임원
enjoyed
violation
##fly
30
##keeping
봉우리
cycles
ngo
hung
kim
romanesque
mu
234
허시
odds
id
blaine
blend
peabody
[unused393]
##ce
il
result
subsidiary
terri
강국
whether
##sboro
[unused478]
##hearted
동치
eating
outburst
ᵗ
scared
silicon
helps
remarried
nominally
##ð
분광계
##42
북구
cascade
##tro
turnover
scroll
hypothetical
polymers
dai
cancelled
jays
無臭無味
appointed
총사령관
1909
substituted
notice
가열
교장
spreading
predict
bow
평양
남연
##pit
earrings
##hold
understand
cute
호감
す
owns
portland
synthesizers
railways
기일
woodstock
mathmaticus
서량
released
##wd
##uti
##ect
레즈비언
innings
roche
cringed
요나라
갯수
sequence
interface
spilled
낙승
ranking
쇼프
진위
course
pr
political
hong
##pro
flight
파테니
126
공개
flourish
accusing
작용
##sher
sing
sparse
europa
##orno
trinidad
함경북도
ancestry
파울리
본질
collar
루한스크
ventures
horsemen
295
pump
가수
desperate
화물
363
suffering
headquartered
tito
nellie
백색
loretta
만연
[unused767]
resolving
저명
lover
monique
stopping
##une
드하스
##aldi
improved
antiquity
일어나
만년설
경계선
##haus
강남구
producer
방문객
organizations
meal
yoo
norway
治峴
tuned
plunge
→
versions
등압부
intact
변호인
rivalry
scrutiny
mort
##chaft
숭례문
medici
kingdom
ami
##ville
skeptical
멧돼지
##tin
일본어판
야스오
친지
진동수
##艹
여담
52nd
controversies
hu
ك
persuaded
route
##hman
flashlight
##4
follower
국수주의
fantastic
개명
spheres
leroy
조선민족혁명당
##ios
쓰촨성
##som
pratt
portray
출시
socialist
microscopic
##hr
도수
afar
##via
critics
##ben
indications
pumps
intake
vectors
##jun
##cl
대결
재산권
##™
emperors
미터기
distinctive
[unused83]
carrie
##cier
##ute
송병욱
포도당
자세하
Hilbert
notices
위례성
seminar
correct
hugely
screamed
lobby
observables
acton
joints
lauderdale
showered
객
news
authenticity
##partisan
agent
##runa
rendition
##holders
##65
##lok
seeking
measure
created
repertory
burt
sailing
scores
chains
saddam
##pina
universities
##red
nigel
milne
##cade
1902
서해상
온조
comune
인덱스
##zano
6000
거꾸로
8000
trader
completely
이어서
십만
가르키
화강편마암
搖動
edison
##rr
headlights
topography
butt
Edward
##ए
targeting
persons
melancholy
gazed
번스
emanuel
radiant
##riated
dutch
맵시
stifled
kern
libertadores
유전학
spherical
colleen
수나라
dry
sheds
##bilities
guides
highways
##broken
雙曲
november
microsoft
##rization
grotesque
골절
인격적
successive
Halk
##main
##hee
seldom
mirrored
전국
삽입
적용
epithet
net
굵
완만하
comprise
인기
상상력
##sham
clements
적발
온대
군정청
니만큼
사업회
웨일스
shooter
launch
melodic
nailed
reefs
위패
##ク
acquisition
경부선
requiring
southend
overland
swansea
##oese
intimidated
unmanned
tiny
cruises
ridge
er
형편
alyssa
[unused824]
요람
청소년기
mgm
##oat
atoll
모순
지미
##igraphy
##key
raaf
##ка
э
창조자
ร
음악제
세계관
위상
핵자기
hospitalized
woken
signed
##oso
changes
[unused647]
chilled
virgin
梨峴
[unused819]
##uto
##rval
##kin
unreleased
crouch
fanny
stain
leland
##kumar
플라스틱
사슬
professor
세상
titanium
phones
genre
acquaintances
regulatory
olympiad
온전히
benedict
audio
니콜라이
camps
1982
consul
aim
trip
시공적
genuinely
hush
comparative
특권
Norman
escorts
##pl
phenomena
[unused512]
케냐
woolf
katharine
surgeons
wreath
ן
fueled
5000
rotherham
absorbed
joins
채택
birthplace
tia
deportation
tombstone
insignia
##yr
선거제
adjustment
##sor
diane
capture
unharmed
banda
##rita
µ
hunts
warlock
peggy
listening
sailors
orioles
융합
hormones
borrowed
dax
[unused831]
담판
대통령령
후진타오
가네다
##l
##more
honoured
torture
waterford
shady
divides
Goguryeo
guarded
[unused444]
대변인
retention
greyhound
say
물러나
blocks
신부
##bir
statistician
abby
배
##ร
##cious
##њ
Quick
element
mcqueen
일원
swam
##bet
##lab
alvaro
due
문화일보
##kko
renewal
중의적
##ato
disorders
fly
subdivision
조수
대략
situated
neutrality
ordered
예술학
문학사상
모더니즘
hampshire
outnumbered
##iferous
##orescence
debuted
치프트릭
suicide
##eti
[unused937]
##54
1884
침탈
##66
muffled
phillies
표준어
arises
quay
[unused698]
philosophical
bavarian
katz
취직
hari
denver
유통
Railway
1704
대등
##mack
비엔날레
인스턴트
emphasizes
제소
##iste
##kei
이화학
개념
호킹
홍석천
operatives
lucille
노풍
badger
[unused656]
##示
potassium
aero
vincenzo
europe
mathematics
dramatically
automotive
현대화
##tur
lucknow
prix
Pi
勝
alright
역풍
거스르
enlarged
girls
브라우어
absorbing
프레셰
일곡동
공전
dl
gratitude
perceived
##icative
자연수
[unused598]
ricardo
terraces
frowns
##ogen
전하량
myles
##井
funding
##ns
wary
innate
오래
상회
wilkinson
설괴빙원
2004
beings
kabul
정계
prosecution
suggestion
blazed
sigh
compromised
fills
breuning
thumbs
deposited
flicker
앰허스트
제차
coating
resort
narrowed
경북
bore
##sted
슈나이더
遼
##tor
어긋나
##nsky
polytechnic
왕도
박기영
€
dd
fabricated
##lone
속하
outlaw
소나무
켈리
도봉동
lasting
figured
이론
드러내
plagued
원년
poisonous
buff
juice
예니세히르
grasslands
연쇄점
알렉사
##naire
newark
beamed
숲
##平
유스
rather
castle
proceedings
bullying
relocated
[unused541]
사과문
서북
validation
shaky
crisis
⇄
pu
설화
인천국제공항
mueller
soviets
지방지
상위
darlington
개시
limiting
##veda
생태계
기법
필수
medley
flew
취업난
bottled
superficial
exception
군단
역사가
하마
방정식
##poo
differing
fitz
비정
텍토사게스
sac
forced
bibliography
baseline
dario
國狀學
totally
eun
VCN
근처
called
미술사학
##sz
gardiner
inability
ramp
1778
thomson
decoration
오리온
간담회
rutland
army
toys
muse
##ider
##bos
환궁
permit
전한
cocaine
hurled
元支點式
thatcher
##ened
pristine
moral
공중파
내슈빌
vehicles
instrumentation
parana
here
비박계
sacrifice
marvelous
문맥상
帝舜重華
옮기
해운
Recommended
탕허더
##garh
battleship
매달
whitley
갈리
valuation
늑약
여행
##lho
##miya
[unused691]
weddings
##nery
흥망
assertion
저가
impatiently
intimacy
outfit
acoustic
coal
ian
대명사
##herton
정당제
try
허수
idf
##load
milano
##lmer
##rite
방언
##fold
strength
##止
입체
staples
telegram
massage
さ
maze
##kill
##pre
disappear
nationalist
린
##very
lotus
noises
yours
tricked
propaganda
마니아
investment
##rk
antarctic
걱정
2016
[unused407]
##acio
screening
archery
##lash
epsilon
shake
##街
국제법상
band
yugoslav
attached
##dation
북풍
다니엘
photo
##リ
translates
##neck
promenade
설계론
specialized
일가
1919
corbin
##ans
signs
delicate
he
box
IUBMB
島
snort
롱바톰
frankfurt
##氏
止
bk
huge
murmured
음반
assignments
##gon
uc
recounted
##ech
span
ministry
##gos
breath
인력
historically
but
ち
읽히
노먼
해석적
lucien
israelis
nichols
##պ
shares
몸
헨타이
[unused954]
grit
choreography
극작가
##aba
pistons
defeated
keys
weekdays
interventions
hits
labour
알아내
woodrow
perfection
eagle
[unused636]
tomorrow
##dner
咸一亨
tighten
expense
contenders
[unused557]
##zi
biceps
플레이트
ে
begins
kolkata
matthias
elizabeth
화음
bother
이러하
orders
zhao
matches
##rke
northernmost
변법
bratislava
서태후
dances
typed
만주
터미네이터
documents
chris
캐
方程式
집회
##ire
뿜
blanchard
능숙하
##door
levant
김성수
trying
문의
보컬
meetings
basement
experimenting
strike
seriousness
admiration
수혈
기수
Kasner
relic
ferreira
tuscany
inflated
disclosed
##hir
qualified
violate
행동
moore
restoring
≥
고라니
emerging
favorable
라트비아
地
leukemia
tempest
numb
miners
미술계
士族
user
attends
yue
빠져나가
spark
queensland
##do
modernist
##پ
강동구
##ʂ
blanche
bypass
safely
##：
lahore
dressed
##∪
##has
##»
[unused835]
초빙
message
§
coinage
엘렉트리치카
chopper
oz
방편
lightweight
dvds
powerplant
##crats
muddy
priced
swimmer
선수
선보이
##tov
peninsula
mt
오락실
원주율
prior
participates
겨울철
batavia
shotgun
vehicle
[unused161]
substantive
sheffield
davenport
##rder
taunton
blitz
judah
quincy
수면파
##в
authorization
로보틱스
대표
계또
##koto
햣켄
테
boiler
##カ
distinguish
2d
clinched
법무부
¹⁄₂
backdrop
pedestrian
의장
골자
divine
relay
monumental
일본어
[unused121]
flashed
##ு
[unused130]
소탈하
avenue
1930
##shu
treasure
conquest
inspections
발달
wiki
composing
amusing
housekeeper
결론
pre
voting
불복
광천
fig
불변량
merely
##ngo
낭만주의
[unused673]
원료
정밀히
everything
diary
가맹국
italics
##hh
월남
문인적
sighted
##ske
2005
directorial
##文
description
[unused817]
summons
moment
emotion
exposition
fortification
often
exodus
construct
њ
홍수
미다스
magnum
구겐하임
94
boxed
evening
1990
ᅪ
경험적
##ces
cautiously
##oint
vampire
yeshiva
Ankara
del
cot
nosed
[unused54]
[unused191]
late
etched
dolls
posed
bien
우울증
fortunes
지분율
[unused454]
구배
serial
camel
inaugural
blues
meyrick
piloted
##お
##！
싸움
##astic
aye
shaping
생리학
ama
sunset
royce
gunners
jaenelle
##bate
찬카야
안치
academie
bound
##dina
firearm
squeak
scenic
##berto
evenly
anti
##sil
관악산
knight
국정원
인능산
##dt
mom
mistakes
entity
pistol
staging
성당
butterfly
unitarian
불협화음
##―
galveston
pts
pitching
##bright
XY
barren
daytime
##fast
더블
내리쬐
332
봉인
works
##js
운송
가산
sanitation
everest
regained
wurttemberg
closure
lounge
##ologies
차량
갇히
clyde
wedge
avatar
ivan
kazakh
로켓
평화적
sizes
클래스
eco
malaga
연재
입찰
managers
concussion
##stis
무정부
문제
흐름
　　　　　　　　　　　　
wright
taxis
warrant
interactive
strung
isa
hyper
##年
세대론
expectation
brittle
jagger
광장
inclination
##cino
forested
법칙
qualifier
##otide
종량제
wetlands
ultra
±⅔
friends
delegation
depend
총선거
kato
##abi
##ᅥ
republic
subdivided
강욱
grill
scandals
비로소
걸
finances
이웃
⊕
explosive
안장
contraction
61
jr
watches
별로
리디아
소량
격화
zoo
##pg
sore
daytona
teller
竹杖記
ramos
contestants
116
앤드
graeme
>
hilda
odessa
OECD
경단
[unused519]
MNNA
Euclid
밈
간편하
시컨트
strategically
정대철
##una
케네디
rescued
promotional
##els
태주
##]
dodge
cooked
##aran
colleges
[unused706]
imino
labeling
벡터
오랜
##tical
음역
leaving
##⁷
노름
밤섬
allegheny
악의적
ling
ingredient
취임
503
코사인
남대문로
decreases
gal
현저하
##raya
comprising
ut
data
평화방송
쉴드
aaa
mission
jain
eliminate
통칭
타당하
nsa
twentieth
##广
뿌리치
wai
bertie
¢
bipolar
refurbishment
##ह
reprise
자동화
pinched
불가사리
막노동
patricia
버금가
##ate
ar
hardly
##sit
한참
##er
fool
reyes
autopsy
southwestern
surge
baronetcy
선지점식
박동
fiber
leather
구별
리튬
미치
57
boxer
raided
gust
##le
분석
게이머
tipped
fault
##kar
변형력
monterrey
法
전율
slowing
shenzhen
suspicious
turns
보스
sneakers
교역
##rse
쉬페르리그
voyage
ripple
적극적
boy
reginald
approached
maitland
라디오
relying
어도
시청역
wanna
kincaid
futuristic
scratching
210
ʼ
자산
airborne
face
폐어
grandma
1975
outlaws
mahogany
scalp
##hal
hastings
도
enterprises
campaign
admired
정식
피아트
ins
많
지렛대
vladimir
##mma
fortifications
bassett
tugs
##sam
쌍곡면
turtles
hee
hewitt
mustafa
##break
마우리츠
##ssen
올림픽
조금
clip
maynard
##ტ
##elles
stryker
bridges
707
improvements
attitudes
##33
##э
nylon
기념행사
wonders
##司
harassment
vogue
준
argent
iihf
suppose
##working
##vid
showcased
좌표계
##tics
stalled
회고록
##nous
1860s
bob
고통
precedence
##vant
smyth
실천
107
김교신
정책위
친일
innocent
attackers
##樹
greenberg
[unused135]
eta
떨리
시절
정상훈
frost
waved
##♣
방식
polar
folding
안태국
율리아
italy
congressman
rebellious
##lle
##↦
취약성
생화학적
##fest
##sy
##dp
청계천
arun
EEEEE
히라
threatened
furious
continuity
fixture
##ª
launcher
senses
propose
입씨름
drafted
SA
indus
1776
libraries
reassigned
##ɡ
pricing
세쌍
##farlane
왜냐하면
jp
05
차별
robbed
animator
공방
beetle
shepard
earth
anatomical
cynthia
sophomore
mtv
##も
chopin
tell
지성
critic
alison
piracy
魏
##tour
bitterly
##mber
ruin
heard
자르
squash
bundles
ㄴ나
hospitals
1920s
##moral
continue
thomas
남북국
access
casually
callie
집필
잠식
stay
後漢
x
iucn
sovereignty
metz
seo
[unused841]
cornelius
폭탄
##vic
knots
##oise
rags
피부
인천
logic
ry
vain
biographical
상자
lancaster
패러데이전자기
record
유린
synthesis
marquette
relate
brunei
##lc
martinez
만기
target
deciduous
affordable
아조프
##nko
ina
해설
##xed
양자화
지형
niece
sheila
##erving
[unused292]
sympathy
sahara
Nidden
덧붙이
키노
smells
##tation
wilderness
blasted
##master
##oum
대만
##sr
##vili
symposium
honda
한나라당
피우
산남
booked
ma
earn
1836
챔피언
USA
안정성
syllable
117
albany
학문
notable
almost
차오쿤
##・
relevant
##မ
disqualification
shocking
obvious
holland
smashing
유언
hero
747
heads
legally
수일
lan
grabs
반정
maiden
pain
##¿
uncertain
45th
racecourse
##nse
##trick
座標系
외곽
할인점
기업형
ratification
고학력
실업가
마한
Biot
bobby
claus
prisons
selective
단연
심각하
벨
##arte
택지
withdrawal
entertainer
villiers
lang
entertain
##iii
shoe
하버드
맞먹
complexes
인민
vimes
crowe
ismail
harmful
tore
marches
safe
겐츨레르비를리
39
##kson
1670
분자량
astro
##lu
페이지뷰
우주관
aegean
##ige
bones
weasel
cove
##uso
기독교인
##ulating
waving
strawberry
powder
recorded
saxophone
##esh
overwhelmed
[unused371]
suggested
##viere
영유권
가섭원
experts
자진
breaks
TOBB
stimuli
fingerprints
교탄
월드컵
pact
##iest
editions
mentions
##urne
쉐스찌
supposedly
license
유형
##ifice
구리
[unused303]
바깥쪽
[unused743]
uci
심제
신의주
1748
안익조
brisbane
swan
대법원
flashback
piedmont
wessex
초동
lurking
springsteen
integral
kickoff
flattened
##alis
진상
히로나리
##22
suspiciously
rejects
residue
activities
contention
norton
1120
[unused984]
fabric
mankind
1605
다며
menu
반격
pretended
전신
꼭지점
불교방송
sincere
##toy
##ip
footing
heaviest
금색
현직
카스
휠체어
raleigh
##rest
[unused186]
rejected
ђ
accordance
1756
harta
고학년
enclosure
##ton
[unused735]
balloon
rfc
termed
transcript
##mission
pete
이성
##vil
native
1848
##eran
driver
##est
steady
[unused979]
bi
두만강
##dong
##oka
경복궁
요령
richest
##ⱼ
과제
원소
innocence
cabbage
marie
footage
예시
partridge
melted
수만
boxing
고바야시
hawker
anna
freaked
integrating
cassie
walkway
chord
석탑
##pp
##iser
##uni
outcome
##yra
serials
cow
동의
sparhawk
potato
다거나
glasses
doctorate
sofie
소문자
xl
선거
ł
##ja
월간지
아보가드로
israel
악화
저작권
viewpoint
켓의
당연하
33rd
수학적
495
ratios
몰아내
장점
avant
warwickshire
contents
직류
babe
miller
breathless
nov
##中
flavors
jurist
##ˤ
플라자
엄정
275
주선
##eux
fresh
sniffing
accolades
memorable
violated
nations
소설가
이루어지
executing
##信
ISO
intelligence
비판적
##him
royal
##ishly
fireworks
##千
가중
桂洞
cinematography
accessibility
##‘
heck
##oll
간호사
도선
niversitesi
purchased
bon
grande
복합적
##yar
세무서
oaks
언더그라운드
name
[unused514]
사망
cruelty
danielle
imagination
pluto
괴담
##twined
stallion
ongoing
thriving
##frey
unmarked
commotion
의결권
bet
천만
습관
이왕
doncaster
##dd
constellation
명령
fai
slacks
rhode
day
1870
deng
호칭
러
waiting
te
관건
##llus
허가서
##zak
specialization
액수
pod
유용성
146
생산
back
##uc
intentionally
stanza
光武
##itic
testing
whilst
lillian
최후
hopefully
deepest
김혁
swallows
합법
shoulders
##away
endorsed
muttering
nate
mateo
teamed
gillian
tyrant
음란물
35th
우물
공분
에퀴닉스
paving
##と
만료
exceeds
일반적
부수적
cantonese
##riding
malcolm
##bio
attained
판결문
연고지
wipe
compared
irritated
##film
trainers
renovated
magnet
3d
166
##द
原
liberties
airbus
##resh
세세하
영등포역
##own
brothel
dollars
unrest
yeomanry
warm
subconscious
백과사전
##zzo
떠올리
앞부분
836
generate
그런데
psychologists
공급
caracas
ה
warning
[unused291]
shook
prefer
##ote
부류
페달
depression
collaborations
fingernails
州
##urrent
아예
간략하
joanna
ariel
확실히
올라오
경화
엔시클로페디아
##／
genus
taekwondo
##nca
staten
iris
rani
retirement
beatles
overture
사무
호란
[unused705]
ு
terminating
##hole
주민
proportions
Espaol
正規
##nging
rector
novel
aching
brutality
ナ
stores
##º
claremont
시원하
crowley
jenna
fuss
따라가
preceding
중력자
totaled
##eric
plains
##き
짓
訓民正音
##per
해병대
걸맞
frankish
regretted
marry
signatures
##ァ
##tal
loads
regulates
rus
체스터
공업
유임
전력
taut
bounce
placing
헌스
찬성
위해
cold
angelina
macro
outdoors
rulers
##rzy
published
[unused501]
1900
채소
snowy
roth
monitors
초파리
descendant
mocked
시야
응집
campaigned
terrific
##hers
hosts
needles
홀수
강경
fulton
##phonic
##take
광
plots
bequeathed
ligue
deposits
영문학
##los
filmed
묘지
transylvania
실탄
nawab
appear
##qi
instruction
ll
##grate
보르쉬
리스
fungal
소국
round
pharmacy
superstar
house
가두
[unused34]
##lands
hc
xbox
도발
수십억
chun
ceasefire
판명
dale
응축
일상적
##icle
##sten
taipei
친형
전철
제주도
seminal
fletcher
quakers
Valentine
dF
₹
고위도
##10
우레
三國時代
tainted
하제테페
represent
월말
dissatisfaction
ㄴ다거나
cereal
가입자
윤치영
alice
welterweight
repaired
##cey
indirectly
##ling
overshadowed
대륙성
nile
fields
mandal
booker
simpson
campos
kildare
[unused558]
transformers
acid
함석헌
saxon
우선시
구성원
offender
cursing
불특정
하계
##თ
carl
왕립학회
外
astrid
##kins
bull
deeply
proteins
정민
responding
##ive
왕자
jokes
appearances
bergen
sentence
남경
한국어
remake
##lga
경상북도
수반
Pa
competing
glowed
łodz
164
##辶
장시간
##dya
taboo
경상
evaluation
contingent
##ritan
상미분
선박용
deluxe
jury
invites
체첸
##城
##yal
frustrating
파우와우
평가
단협
stored
동시
분야
theatre
astronomy
싸이클
rehearsal
gracefully
operative
annex
공주시
불연성
鞍部
19
totals
열사
##ᵖ
공보부
산일
communications
##houses
##mot
bauer
出
bullets
toll
##mara
caretaker
저서
전산
founding
소송
sediment
homer
crews
mustache
[unused214]
partisans
victorious
identifiable
bright
dmitri
야구
caste
ballad
disturbing
32nd
程
쾨펜
jon
sweden
steer
sexual
490
십
BBS
cochin
박사
|
bottles
##sp
arid
##aro
lester
##court
marseille
redesign
##語
레
제품
魔
지롤라모
[unused588]
판도
arena
hawthorn
ignorant
vendor
Residue
further
pamela
henry
ready
tech
concluding
문예
wheeling
##tlement
##alle
დ
eighteenth
clockwise
rattling
##gano
직면
bits
marriages
목동
##brook
##most
scissors
##pie
∪
sergio
spurred
displaced
##ob
##sia
assumptions
niche
predictable
##pet
Appeal
려다가
resides
appellate
##bank
##yam
플라스마
##田
이기
##aries
백과
⇒
mage
influences
guadalajara
acceptable
##nut
##oy
토하
촬영
최빈
briefly
평원
　　　　　
invading
무신
류리크
읊
unix
##க
J
940
globally
thrash
##ges
##dev
resist
spawned
통화
리벳
bree
팔당
burgundy
karma
rumor
##tated
징계
##verance
arterial
fest
commercially
##tone
insignificant
연철호
beers
##hani
방울
##standing
무용
cass
보행
##mora
floods
##宣
철폐
격자론
originates
##river
##andra
horton
복간
graz
worms
sandra
단행
[unused367]
agitated
oclc
밖
alumnus
sprawled
##ailed
[unused533]
에스페란토
##analysis
circumstances
exemplary
tuesday
interstate
##igny
sponsor
만주국
farming
##ᄂ
넘어서
crush
agreement
kings
대별
expired
두산
의심
manifold
mo
CGPM
##row
peanut
##hyllum
해운업
physics
생어
に
승계
스파
tar
##escu
살짝
laptop
털사
티베트
##ᴬ
affiliates
토론
[unused37]
##brates
films
inched
gubernatorial
ascot
startling
##ᵗ
iii
greeted
availability
기암절벽
##elial
##pate
브뤽
sterling
ignoring
아타
cyclic
##cic
crown
partisan
inmate
[unused583]
[unused147]
unleashed
슬래시닷
1852
outlines
surprises
작성자
진흥원
ambush
rhapsody
존중
##ite
지수
##mir
Universal
1450
believers
choosing
vibration
희
전성기
yeast
finals
맡기
fading
parasites
##り
kitchen
ᅦ
[unused599]
divided
담화
변
법원
ago
blending
사탕무
interrupted
竹
whitaker
##gen
francoise
response
재개발
1983
##wes
뮤직
##ction
agnes
cavendish
[unused319]
nascar
해전
log
accomplish
도쿠타로
##nais
##བ
countered
전업
數學
종국
₤
특사
swings
kidd
당구
inspecting
오후
해설서
discussion
mitochondria
후
예각
분석학
auto
swat
tutor
curt
선사
벌금
bombing
월드
elongated
인삿말
독점
driveway
Porter
marital
##iaceae
질책
ochreous
observation
menacing
scanning
clues
##ticus
진행
urgent
행하
먼지
ib
부활
protestant
Wikipedia
비행
bracelet
galerie
취급
woody
혼합
sigismund
##port
cheek
sources
marsh
restore
온천
vertebrae
balcony
##on
격월간지
권장
##lev
검증
##pati
ten
mattered
griffith
suggest
Gesellschaft
치밀하
xvi
고산형
claudio
824
rip
demonstrates
##go
델타
##itha
정량
가톨릭대
cuckoo
ф
baptiste
こ
utterly
schedules
연료판
로트바일러
##oud
ensemble
actively
eugene
skyscraper
반대파
soccer
recruits
##ever
##utive
미디어
terminates
berwick
fledgling
##flower
depicting
presidency
인과율
kurdish
palatine
##ulsive
altogether
동북부
장마철
##−
개천절
imp
eagles
부산물
twenties
almeida
저명인사
angola
ག
statement
sony
키예프
ants
dancing
penal
pasadena
mesa
文藝
과거
dust
luton
entertainment
scan
##vington
내실화
helicopters
수락산
zane
characterization
systematically
disappearing
셔키
padua
손권
carlson
옥스퍼드
modifying
병인양요
lyrical
auditory
edge
professional
trophy
teeth
effectiveness
##lston
오아카야마현
disgrace
غ
exhibition
horrors
간단하
graffiti
젊은층
##lift
nak
eve
empirical
nme
포병
무엇
workplace
402
zoning
40
cumulative
##flight
dunedin
authorized
shortened
coke
Fazilet
regis
##oke
tommy
massacre
construction
demos
gabled
philips
る
kirk
##cal
plants
문예학
informal
sick
추이
results
crook
남명
բ
이행
strikers
##grounds
각
반
선비족
WWE
였
개장일
prague
bud
감리교
알맞
accompanying
##scu
##thic
destined
nope
벽돌
[unused240]
봉천
cunningham
hindi
bologna
∘
infants
keen
자연주의
중류
합려
greco
giacomo
clerical
peaceful
측량
##rine
relies
emphasizing
enterprise
공동체
文庫
糹
##dale
bless
##jad
brunswick
courier
피랍
quoting
1609
##hwa
popularized
adapt
ornaments
참담
₩
태권도
##oper
melody
gordon
riverside
분계선
germany
##mx
spurs
warner
trumpets
유전자
variations
실험자
protector
##lla
damages
불타
bavaria
suppression
근본주의
1952
bonuses
edwin
directing
copa
acceleration
##ล
secured
##cr
carrying
reaction
inhibitors
##light
tensed
개최
motors
splits
수치심
##irus
삶
boiled
오른손잡이
reich
convolution
slaughter
heroes
left
##one
scorpion
김중권
묘사
##س
pharaoh
ox
sloane
esa
bounty
sloop
소각
pearls
그중
아처
집계
평
독일어
혐오
duc
filly
chaos
帝
fuscous
사상계
basic
alien
approximate
##eni
alignment
utopia
fluttering
예니켄트
분개
contested
##tick
대단위
ŋ
crop
punjab
inflammatory
encompasses
인과적
니트족
1944
strait
wednesday
PIPA
bounded
brennan
1700
interspersed
coaches
asked
bartlett
reins
미치오
##ooping
various
bases
ark
적응적
separates
workers
heterosexual
supremacy
수치
조르주
routed
trimmed
##人
[unused741]
줄어들
hillary
교육
fucked
다이어
무례
저장고
clicked
[unused724]
ᵣ
pip
spices
messy
obligatory
lace
grain
shi
lively
견제
mainz
##iko
fein
comforting
abundant
##ska
defeats
collarbone
카를
##nz
wake
giggled
torment
판형
phrases
fluffy
attorney
감찰
[unused82]
affair
제작자
##ua
tenure
##lete
1959
growth
bf
replacements
272
독문
##alo
센스
premier
차체
타임즈
##fer
agriculture
둘러보
sexuality
코딩
ireland
discussions
indochina
은행
분쟁
took
sees
dumping
alicia
라키브
hazel
응봉
bt
##evich
##ht
worrying
##ifiers
1930s
feng
mayer
counters
fully
separating
##>
KC
dar
unlike
huffed
infused
W
weakened
cochran
cutter
최서단
ottoman
67
scripture
그다음
##ais
종교계
[unused52]
kuwait
natural
히라가
像
alcohol
##aring
delta
salon
poisoning
324
spearheaded
판문점
giro
델
총연맹
단일팀
convert
기화
patsy
hertfordshire
michigan
우호적
##gia
化學
##inho
[unused354]
shape
백성
assumed
visit
##avian
융화
gloom
루슨트
Planck
tr
kurdistan
accord
augusto
জ
##agawa
most
chuck
freedom
poles
abducted
editors
士
singers
backpack
succeeds
黃帝軒轅
진행형
ledger
vowel
kathy
clauses
##せ
신도시
speed
frightening
economies
##ง
1727
절단력
relax
토크
hunched
pietro
평범하
hilarious
times
ख
cobb
Gksu
##utnant
pasture
streamed
museum
contributions
삼천만
유치
gastropod
##rdi
주니어
enemies
통괄
brilliant
¥
##bella
戸
unidentified
banned
motives
filmmaker
possessive
##食
sniff
면화
debra
트리주브
##bert
locker
자격
nod
offence
##edd
미소
craters
##ible
##ture
renovation
##iz
##bolic
##kker
holdings
생계형
##ulum
##ı
neighbours
사전류
낙하
contrasted
##wee
최전성기
adorned
overly
uptown
puppets
reece
diet
jaime
ბ
eisenhower
##idad
##ram
referred
buzzing
drawn
출석
##dion
이화령
ง
大韓民國
##avs
somewhere
behind
표방
381
citizens
loving
kat
##year
집합
retiring
reactions
faults
잡문
배척
clapped
양성론
목차
consultative
신석우
##也
danes
고관
secrecy
위장
선언문
goalkeeper
횡단
た
##wed
applicable
##ckey
##郎
광무
푸드
reflecting
##an
patriotic
expose
dmitry
widows
grief
assisting
1781
재배치
한겨레신문
187
problem
mph
romani
진한
##lding
##gic
connacht
lingering
graveyard
기아자동차
assemblies
moffat
lessons
[unused481]
정기
significantly
susquehanna
##ן
남기
##nin
clearly
np
##nx
成
##ein
counsel
원산
cl
[unused310]
##rino
##hum
horrific
labyrinth
同等性
cardinal
shillings
puddle
자취
acquisitions
##oslav
부사관
數學的原理
##tler
inaccurate
stokes
[unused41]
##ante
力學
항복
환공
rich
sbs
뿔뿔히
cannot
sacrament
crimea
흙
tanya
청문회
수산화나트륨
패킷망
268
##sville
prussian
국면
supervisors
originally
supposed
장애자
[unused576]
방정
drink
비행기
전세
조직적
steamship
미
대덕화
dail
정치색
Board
mediated
leg
미끄럼자
manuscript
convicted
hiroshima
billions
##ous
grateful
porch
大日貴
[unused389]
approaches
muscles
##rka
plaid
warrington
##yard
peek
##wheel
resided
feud
unemployed
판화
salute
transition
사대주의적
fill
banged
[unused764]
공단
시카고
plenty
ट
curry
이라고
비자명
##!
classifications
dissertation
scranton
implicated
##scia
내려가
참가
dug
ı
precious
isles
leo
finale
riddle
물방울
obtaining
호남선
tear
calculated
등용
mariana
centers
뜰
russo
uncovered
미우라
애석
schooner
[unused604]
알무카바르아
miles
1990s
annie
##eber
염소
역사상
ɪ
스마트
유화책
피격
며느리
drinking
##bat
rosen
kobe
##thor
jumps
##ffi
terminals
양철북
추첨
expect
chatting
별도
##ar
previous
창신동
subsistence
evolutionary
context
회장
안정적
##breakers
vampires
扶餘
新
잡지
무조건
편집자
Savart
consumed
hoping
kissing
탈권위주의
어서
日
노래
informing
##xy
##ᅮ
heartbeat
##bari
wilde
sacked
장지
trevor
히타이트
##ve
무기
eyes
layer
poetic
##eira
##nosis
##nel
kyrgyzstan
amazed
rounded
regulator
이병춘
##borg
ridley
한국외국어대
starvation
[unused806]
Arithmetic
code
counseling
##kota
##inton
collaborative
electrification
의자
dirk
측정법
preface
cristina
annoyed
uncle
rocco
hours
##eth
publication
Joseph
lakshmi
emails
정찰기
##ran
포함
tae
##ffe
"
##ced
gallant
cicero
참관
Peter
guards
##mel
vox
##aman
estates
retracted
신농
개혁적
[unused334]
##atics
pastoral
수리오
flights
ambiguity
집대성
bourgeois
劉
올리가
얹히
financed
견해
진폭
sailor
18
adoptive
wished
주교관
bertha
armored
##ami
bees
carmichael
##♠
규모
포샵
had
[unused164]
auburn
pennsylvania
byron
남자
clifton
##list
일치
connect
[unused892]
Runaround
nec
npr
proxy
마을버스
scott
reverted
variables
screaming
incorporated
relaxation
nay
monetary
353
공산권
natalie
맞서
유지
친러
prints
반영론
rallied
butcher
##iot
##cape
개방적
worm
narrower
±
foundations
movie
하여금
clarinet
발의
이한동
밀턴
evolution
##gu
sequel
andes
edwards
dell
theologian
pad
전무
never
AMERICAN
##bach
ecuador
archway
환경적
신규
worst
적도
resented
hugged
1994
enhancement
스칼라
thirteen
269
##iti
killer
liv
collected
1796
はつ
##hone
압박
유엔군
다섯
공민왕
chandler
condemned
##ே
##hil
90
##uki
subdivisions
近藤茂
morley
powerful
##vos
의식화
leave
국세청
바이킹
maurice
shah
대사량
cheekbones
일컫
묻
파헤치
aground
nest
winding
상거래
##child
kellan
##oux
tasmanian
1853
bonding
청구
[unused140]
명확하
montpellier
정액
missouri
dillon
recommendations
treatment
expedition
망하
임
toe
disagreement
jointly
다카
##ndo
##เ
문화제
[unused230]
clearer
khorasan
faulty
기리
스티븐스
금융
전문의
hangul
파
회계
espana
중공업
탄도탄
지치
use
documenting
##sburg
##cured
oxford
##א
planets
##『
wage
##von
curved
톤
수차례
denmark
bear
dismounted
arm
##work
cabin
iceland
N
gunner
Nurol
cathy
outfits
latin
heinrich
플럭서스
##cting
bats
programmes
장교
황조가
성산동
knoxville
xv
바나흐
plc
소비
##s
##cut
rifle
연구진
inland
물리
접경
폐교
좌
##ت
증시
metres
pains
trust
##edo
[unused437]
모노가타리
버마
선수권
기제
alternately
문체
##"
golden
밝히
1864
마음
ᄆ
civil
hidalgo
##ggy
號
273
pointedly
marxism
강장제
deserves
rouse
satisfaction
ー
[unused509]
1689
tokyo
이범석
슈투트가르트
사다트
##æ
뒤쳐지
1883
제천시
certificate
factions
vhf
[unused223]
spite
나침반
시청
fisher
abolished
동정
倪詩
군소
##dling
선
파면
[unused491]
##橋
알베르트
인수봉
hockey
ᶠ
doctoral
usd
##orne
honorable
absence
보호
«
연평균
패스트푸드
아셀산
antagonist
determining
substances
##uer
향하
점별
人
1800s
꾀하
열거
hanged
##eu
blinds
sharpe
stemming
안암동
climbing
bungalow
면적
벌이
식히
objectives
desktop
기하학적
개원
tv
##keepers
bonnie
gospels
##core
[unused145]
blush
광역
hard
##nical
475
##hid
##ₑ
cities
주류
##bard
cree
jeep
revolves
natal
anchorage
수렴
귀벤
동성애
gerald
fastened
단임
hummed
manifest
바늘
水
shelley
##tai
##lang
##we
kingdoms
요청
창단
열강
졸지
##je
hooper
eddy
##dman
허구
cops
##amina
months
대잠
조상신
유럽
indicators
casual
문재인
##ani
스크린
투기적
ashby
兩
originate
saw
##lessness
theatres
멱살
[unused641]
ս
##sat
동형
양립
prestige
##kari
milk
##iens
despite
청색편이
##nka
소대
변궁
고래
김두관
[unused701]
reunion
스즈키
put
bertrand
mer
록펠러
##॥
파리
leads
종속
##ado
##iel
##onate
reese
cache
economics
shrinking
지배층
forty
sustainable
부피
齊
blankly
전투기
신현준
빈도
april
whirled
저학년
sink
aerodynamic
##ا
작사설
ᵤ
##eng
##hosis
reprint
ware
변형률
스펠링
무작정
republicans
갚
apple
한남대
1785
광양
Lynn
##is
##ල
institutional
manitoba
healed
bait
##avi
condemnation
von
졸업자
음료수
개요
손
sonora
Charles
밴스
핸드볼
[unused865]
올라가
contempt
criticizing
aligned
bargain
feather
##tions
icon
relates
generates
도중
비둘기
spectacular
dramatic
공영
동화적
##charged
empires
situ
##nb
co₂
units
discuss
weber
lazy
icc
granted
집현전
##stems
reid
earl
platforms
lucinda
##tv
[unused352]
소장
salmon
GJ
한나라
##dun
expected
mallory
체론
폭행
##pura
donovan
급
##ams
##cp
dense
##ode
funnel
regaining
수달
linebacker
modernism
psychologist
미흡
불씨
some
alcoholism
불수록
##feit
saetan
임정
한미
확실시
##イ
##rogen
범용
リ
품
smarter
dropping
survival
[unused662]
slain
구실
inscribed
##yana
[unused993]
breasts
boyle
##/
[unused166]
단문
ideas
샤프트
meng
dragon
##turing
unspoken
뤼돌프
lump
수십
superseded
alejandro
한국노총
governor
sync
james
기업가
borne
[unused138]
dunbar
##₈
[unused956]
포브스
주기성
salisbury
##nist
궁인
suspect
운수
remington
hiding
prospective
income
1999
230
##gaon
##city
##lock
접
mexican
winners
kyle
interiors
닥
##lines
£100
shrieked
서버
자본력
preserves
glazed
고민
제곱수
##igo
contain
여진
유출
otis
수심
호황
72
teach
dagger
necessary
vial
##name
drawing
##smo
immense
중시
##ched
훗날
헤닝
셀북
깊이
켄트파크
dogs
converge
bundle
cause
scowled
##ث
크라이
£
clash
coaching
refrain
breeds
empire
foam
yugoslavia
artifacts
주먹질
auditions
codes
adept
something
northampton
sermons
hz
##building
사업부
우
pitchfork
도출
hannah
bonus
प
tube
tsar
utah
시드니
##ril
exhibiting
##zyn
[unused980]
케말
stalked
sheep
대연정
commentary
dorian
옥중
there
letters
montreal
hates
ticket
영정
councillors
famous
wireless
checks
##hawk
isobar
terminated
포춘지
unavailable
전직
suspected
declare
underway
원하
24th
confess
프랑스어
didn
assassinated
justified
곤자쿠
helped
CKM
클라이맥스
enriched
gerard
푸르사클라르스포르
의정부
vegetable
felony
Kalk
pumpkin
야마
schwartz
deed
이랜드
bbc
재판관
이어받
땃벌
##ogical
nic
青
##nov
hunt
##lander
credible
craved
생활
bard
examined
##nis
@
wheat
reformer
summarized
Sper
[unused729]
##ados
requesting
head
##く
안니
patent
larsen
ɬ
shrink
interceptor
CEPA
난류
검
##ย
치명적
629
##za
crusaders
총선
excuse
##·
crusade
##け
music
1807
##rti
preventing
orchard
##cked
##enko
disco
giggles
emergencies
whore
암석
예술적
eyelids
covert
349
만점
mclean
academic
##35
fia
##lence
fronted
간지
집착
##uz
사쿄구
kaufman
가드너
괄호
##ured
distribution
gentry
kenyan
단주
경계
##ific
sighs
done
nuclei
allow
stomped
resistant
##sław
ballot
transverse
알짜
##pled
유기물
케치외렌귀쥐
적법성
salim
fishing
스타벅스
유조선
linking
illuminating
quebec
진
soundtracks
shoulder
##fed
車
lasted
비롯되
decides
현상
##pressive
tackles
##iki
찾아가
fun
##clusive
Ar
fm
mhz
활동상
hacked
합하
[unused963]
experiments
doctors
마시
##gy
primera
fact
까닭
봉사
BI
수산
freshman
천천히
CHP
cheap
cecil
economical
set
chancel
암모니아수
유효성
salts
##lices
gentlemen
basal
vicente
bengali
##atin
##gart
신학문
anwar
wife
장유암
emily
기업인
서우얼
herr
[unused366]
daring
제치
ի
sw
사회학자
##landa
two
hearth
parachute
유
##minate
sigma
shortage
receiving
매
밴드
##ₚ
sank
초판
색채
gotten
품질
sec
smile
극관
1736
westwood
##tell
삼척
그러나
연설
##inn
[unused974]
##mbit
larkin
hunan
스히예
##pw
gustave
CCL
1629
corps
紅峴
교계
billings
代
##ination
##0s
##ø
[unused664]
##holz
##ulation
##iously
myself
동고서저
조선
히로시
sipping
mcgee
1820
bender
kumar
##woman
luke
specializing
남짓
asteroid
turbo
dialogues
사대부
[unused248]
lindsay
guaranteed
arizona
##tees
불교
PDF
백두산
calming
Claims
beasts
practitioners
caves
manually
열대림
Gau
##ausen
##fighting
invaded
지금
nighttime
italiana
망명
인천광역시
##hed
refit
동아태
オ
beth
wept
merchandise
##eo
excavations
traveled
302
surrounding
weston
각축전
##pper
growl
sao
received
##nidae
ASCII
ft
##game
##mology
서사시
environmentally
grams
rhythmic
동아시아
contemporaries
sponsored
accessories
vila
괵첵
erotic
소박하
국격
morton
bodo
##imo
드러나
retain
tolerated
##con
##sworth
hemingway
blessing
subset
보수
타고르
##堂
features
rowan
engined
counterparts
rectory
南北朝時代
virtually
sanity
##gat
검열
∈
인수
structured
음악
shitty
punish
harpsichord
madly
rents
##ulia
immunity
ς
insulin
bloc
[unused15]
bubbling
##sible
।
##making
gore
흑해
travis
pots
chow
건립
ga
심부전
##ntly
backstage
trait
having
대왕
比
nair
석회
voice
ب
114
toad
처하
tamara
modules
elsa
[unused16]
steals
활동비
purchasing
mahmoud
추모객
피산카
ashes
tallest
주행성
novels
biting
내부
플로리다
deserts
12
##ood
engineer
國歌
nyu
##asse
thoroughbred
e
무덥
understanding
presidents
destroyed
bone
지질학
거치
craftsmen
discreet
theodor
tara
harlan
정토
groan
prevailed
##otto
bautista
consumption
caribbean
acknowledges
[unused255]
##aceae
plank
이상자
아산
glass
##sser
distortion
폭등
spencer
smiley
1926
falls
iteration
정국
1659
4500
1896
경주
수직응력
밑바탕
현대전자
joyah
##lateral
butler
warfare
braking
##ucci
세부
##orio
ක
arrived
한상률
##な
##music
slave
depended
mast
scientology
author
angered
nodes
통신
francesco
휴전
습관적
282
애니
rhea
안정
holder
ferris
breathed
##貝
그림책
논술
shoes
반지름
whispered
nirvana
retribution
##opa
castillo
swarm
원
##fa
플레인스
##amp
akbar
늘어나
barnet
deprived
발타자
##√
benign
exiled
고양시
해안선
wanting
follow
중립국
careless
##fusion
##lee
특권적
조머펠트
아페리
今昔物語集
utilizing
흥선대원군
종류
syndication
sculptors
남로당
illustration
##נ
정수
칼리염
파견
##trom
##ices
ए
##車
repay
adopt
photographers
finger
into
enzo
ratings
intervening
한국통신
ABC
ng
performer
remade
##weiler
Elektrichka
치프트리이
harmonic
や
variability
컬럼
협동조합
frame
bananas
지니
라이선스
ankaya
[unused825]
qb
grenada
wildlife
robot
[unused74]
##g
단순
meters
soaking
##gram
재차
유효
이외수
incomes
tuning
非
##in
lasts
##blood
orchestras
무효화
washington
굽
ی
太
seeded
simone
slicing
correctly
obtain
uranium
탄성
novice
intention
liege
##dia
##গ
전학
pairing
vida
##間
발주
sar
auguste
芥川道章
지능
mural
##chy
갈리치아
commercials
강세
seeds
ad
하이커
boulevard
모순균
초반기
싹트
explore
우상
launching
amplifier
candy
##ffled
input
##ly
지면
silvio
##que
##ennial
figure
출신지
chapter
글라스
비공식적
##sed
##tis
영조
gangs
목적적
##bling
sequencing
높
sporting
##utation
anticipated
celia
held
researching
liberalism
linen
realising
brew
중첩
저수지
레코드
nordic
majesty
##nock
258
daniel
辰國
grades
requiem
언론사
roughly
lucia
Balliol
화재
supermarket
knelt
wine
cm
booming
##ד
papua
rallies
owed
同音異意語
Refah
학원
boon
bertram
sulfate
daylight
##p
adaptations
wilson
india
자료실
clung
참석자
채결
다트머스
osborne
bremen
##ol
신하
##fera
periods
ensuing
diploma
110
nguyen
arousal
commemorative
알렉산더
##eme
CBS
신윤복
instrumentalist
zheng
derry
##vr
대선
creamy
ハ
tires
누피디아
藤
rihanna
경부고속도로
회관
arbitrary
ん
writ
##id
이리하여
간격
blonde
##lei
605
수인선
concession
단축
생겨나
pregnant
ligament
이농
김규식
damon
insists
51
##yed
두부
##sman
clearance
precautions
tsunami
releases
[unused863]
broncos
reunited
여객용
잇
《
う
무대
commentaries
chateau
노사모
行
ज
dumont
기계
작곡과
섬진강
사저
名
라플라스
paul
expanding
geologic
rehearsals
1656
##hog
alcoholic
문단
##wing
##gf
simulated
343
유학생
burnett
curly
reddy
levin
59
arresting
neutral
utility
bells
록
##com
화석
igor
assassinate
speeding
##champ
##љ
##lun
일반형
strains
wrapped
greater
managing
##qui
risk
광구
needing
수주
場
handball
##vir
온음계적
decades
##pr
kayla
carved
sensors
기본법
후원금
에이치
아연
장군
butter
드네프르강
dfb
fortress
Deep
stamped
howard
[unused51]
since
bred
TV
peering
경찰관
에도
alain
accidental
##form
伏羲氏
labelled
덮
popular
detained
방송사
cylindrical
##ug
lovely
admiral
captive
cai
왈
pleasant
live
rd
chatter
lal
protagonists
commencement
kelley
司
##bia
식별
zombies
similar
chicks
predators
재학
halt
evolving
아마도
caf
기상
##hay
금지
avoidance
sophia
evil
##ghton
elite
지역주의
지역적
hydrogen
##hammer
##oire
escorted
hearts
파기
세종
intends
technical
ushered
enfield
책정
dispose
ribbons
upper
최동단
예비군
load
전해철
bag
어울리
결렬
향신료
##清
O
conference
서부
を
帝堯放勳
mammoth
elliptical
broader
비민주적
マ
페르시안
##9th
ㄴ다고
cds
一般相對性理論
신속성
forensic
half
rover
단점
ev
2012
추방
성공회
단순극
승진
도로비
mindanao
[unused676]
쿄
171
kosovo
gamma
시내버스
pollen
란성
tidal
warnings
[unused697]
귀향
경성
bernardo
widely
동업
fluctuations
1115
체중
nonfiction
남조
당연히
takeover
narrow
##cular
소절
ying
health
수브라마니안
,
sprawling
ა
##mona
hunger
sinks
cylinder
cartridges
cope
경우
hot
페터
rug
라든지
곤충류
金敎臣
활발히
proving
[unused445]
alloy
pinto
insulation
사전
##jo
LLLLLLLL
데이타
ching
##cture
수분
lion
비에트
parents
##rica
miniatures
[unused266]
recalling
marta
picnic
kirby
parody
貝
customary
objects
1721
loyalist
opponents
폭스
김포공항
연맹
connections
robb
choral
paid
killings
lacy
페르시아인
candle
오염
놓
테러리스트
슬라이더
transmission
차남
1771
sport
국제
harvest
volley
##ュ
##osity
alta
ascended
cost
portfolio
폐기
신비
dante
oversaw
봉
인터뷰
dyke
offers
cremated
comprehend
strengthened
바이러스
46th
여중생
##asia
217
뉴스
room
†
##vances
동물원
부패
대질
##shed
gloss
bravo
허수부
formation
caledonian
라고
screen
清
##ncy
없이
[unused220]
충격량
groans
구름
ひさ
무가지
leftist
최승준
pulses
duane
younger
##metric
spanning
dod
robyn
[unused317]
hare
haynes
xavier
atv
상투적
신해혁명
negotiated
목사
##thes
tajikistan
jolted
비서
단장
futsal
mendes
시인
텍스트
에르뇌
[unused981]
##girl
hesitate
##har
unpleasant
aragon
의석
packet
djs
##باد
stems
각속도
순환적
flashes
dunne
trusts
의기투합
과시
shame
##κ
edited
山南
christie
discrimination
##む
##州
somali
긴밀하
32
광주산맥
구독
leaks
##uron
##bered
355
ю
로렌츠
##gi
habitat
[unused73]
respectively
양극성
모사
mesopotamia
hardin
casino
backup
즐거움
내륙
비공식
ideally
인도네시아
[unused885]
carlos
##bourne
serena
진정하
소소하
적분식
온돌
crested
layne
unanimous
realise
border
weaving
[unused605]
135
runes
afraid
barley
erwin
holmes
subgroup
analyzed
farmhouse
약하
##ов
[unused790]
chocolate
##№
lesley
##ße
##mur
현대시멘트
##lance
진보적
##cytes
음절
##ʐ
villagers
providence
paler
salazar
mutation
##प
고도
dvd
sunken
섬터
##vsky
fan
Alt
gorgeous
jia
##lez
##pin
urban
darkest
race
캠프
challenger
[unused252]
null
purple
[unused349]
사상
##fb
summon
•
module
감퇴
[unused77]
millennium
twin
에스파냐
광둥
탈색
minority
isn
반가환
빈부
##arion
홀
inning
프랑코
##ik
sportsman
メ
montana
yearbook
obesity
karachi
당초
circa
귀국
전장
##tility
1773
1754
elvis
광명시
비디오
arabic
##opers
endangered
carly
harmonies
미술관
burst
번역
연관성
좌안
브뤼셀
354
phantom
통제
경비원
family
chooses
265
aquarium
##ars
insect
##tized
pitted
rappers
신청
포인트
contracted
##rf
ruled
애플리케이션
willingly
um
목공예
colder
rios
animals
commemorate
norwegian
burke
##vation
driven
real
ortiz
##ulate
##tina
태아
돌아가
계우회
during
친노
amused
susannah
roger
물건
애국가
correlated
stare
coco
argyll
자기
수력식
elevator
[unused681]
웹
clarence
apostle
privatization
실학자
친조부
262
named
一般相對論
RF
##pis
대형
italia
##三
비꼬
transcribed
raining
조성
##阿
도깨비
majestic
casket
torches
percy
뢰프
triggers
maize
ao
scholar
신나치
kung
佐
y
citrus
erase
##ан
어패류
##ᄎ
봉쇄
##ц
예보
로즈
번쩍
##vision
야기
가중치
witchcraft
무드
제주
study
leaped
celebrities
drained
yokohama
elites
weep
항상
fence
geography
vivid
av
churchyard
서남아시아
⊗
organized
지뢰
발전기
##tric
##jn
기원전
제동
전적
estate
영결식장
##phine
photography
clue
finish
investigations
motions
현대전
철거
lifting
mouse
disdain
루시
德
고소
봉하
가시광선
threats
자질
adventurer
인데
##43
expects
submarine
vulgar
societies
##ieu
arcade
##ivating
[unused372]
gender
pilgrimage
##bt
apologies
monograph
1962
sweetie
pro
reuters
러셀
정적
advantage
진실
katrina
위생
crater
##31
[unused364]
molecules
tenderly
glaciers
ₕ
crops
comb
##witz
프레시
mango
##gist
dynasty
officially
kramer
토대
hostages
opposite
confronted
초른
concord
theodore
[unused668]
##ander
rockets
boer
야경
herbal
호응
##ppa
##ette
##vard
inorganic
##ead
##tyn
peptide
lei
[unused490]
nottingham
삼각형
##vitt
##xide
crystals
bubbles
오오히루메무치
negotiate
[unused485]
##fully
lana
admitting
耳
여파
alliances
mari
꾼
##*
한국군
verse
##agger
claire
know
reside
nw
opinions
71
등거리
##ively
yamamoto
org
민학
융통성
유카와
fcc
출생
사학
핑킹가위
penetrating
생수
presumed
ව
http
손녀
dashed
certainty
##jima
##ggs
suv
gears
동력
protection
apr
28
##ᄏ
브루
choir
evacuation
nipple
mistake
soho
[unused18]
romney
asturias
##wyl
inquiries
stairs
##some
santana
netting
##cd
eastman
sylvester
중립성
##nick
복소수
imply
手
게임
capitol
≡
cross
케어
illustrations
환승
glycine
parental
1921
stalking
parma
일리아드
카스파르
plata
columbian
yukon
軍
문집
리브레
bryson
hurling
tasting
##ч
관념
1667
horses
ecosystem
335
광개토왕
[unused489]
hines
예상
peru
sour
프로그래밍
malaysia
wes
pleading
turkish
attribute
퍼붓
##（
딸리
라이프니츠
churches
vinci
exhibit
aboriginal
소재지
[unused868]
trench
nicaragua
theaters
delicately
공공시설
probe
부전증
willem
stirling
luce
orbits
장악
정인영
체결
方程
혼
##erre
社
尚
observer
imminent
개피
재기
성공
건축
오픈
ymca
##gan
결정적
fitzroy
방송인
공장
시
소변
invasion
transferred
attempted
맥주
군장
wow
##土
##rong
확장성
diagrams
프리
consciousness
[unused833]
བ
##gate
[unused957]
##od
undertaking
magna
brandon
버튼홀가위
[unused967]
migrating
countess
roxy
조립
질량
물길
진전
종이
우치
더듬
mystery
burroughs
맹비난
대목
no
wiggled
clancy
컨서버피디아
##del
rainfall
chickens
missed
¿
정당하
sobs
mean
성진
florian
ownership
메달
활동량
oblast
rise
capita
forgetting
뉴코아
대칭군
定州
villa
藪
##勝
##л
businessmen
guangzhou
dirty
handicapped
##base
황산
페르디난트
refuses
punch
##yce
[unused100]
above
designed
builder
alexander
1645
내적
cv
straining
동반
파트
갈래
increasing
스토크스
sprinter
11
flinders
ㄱ
lingered
엮
다투
이치이베이정
competitor
##ela
이끌
류영모
capitalist
gable
workforce
중력적
salzburg
포용
pablo
decorative
else
emeritus
##ain
annoying
정상
jammu
상관관계
다치
1929
glistening
displaying
[unused28]
cafe
sensor
arroyo
뉴턴
星
##roup
##ih
[unused660]
link
sake
accused
원조
[unused822]
##zumi
거짓말
청동기
상황
##h
차로제
2022
##aghan
ラ
늘리
ₑ
난징
reduce
②
shopping
almighty
st
인정
levels
preserve
小品
measurements
maldives
크라메르
reads
haven
체스
[unused379]
yourself
##প
카스파로프
수도원
sharply
野
spill
persistent
wiping
missions
triple
sherry
관계없이
identified
직선상
engineers
무료
##ssi
edict
자책감
copper
beef
##dc
algerian
britten
reference
##nate
조선민주주의인민공화국
##ylus
모자
안익태
##berg
사무실
조지아주
##cating
domesday
indira
커먼즈
비틀리
bleeding
둔감
살해
##↑
hosting
먼저
ष
poor
##ב
churning
1927
받
회절
야스히로
럭키금성
##holm
꼬이
아트리움
구파
마틴
erased
수송
씌우
gwen
팽배
거대
upset
flute
exclaimed
boris
aims
measures
##pha
walton
officials
##yde
YMCA
cyrillic
directive
代數
beige
longed
휴양설
iran
testimony
덧셈
##ᅳ
hallway
전향
[unused438]
seth
##龍
kyoto
허
그러므로
자치구
29th
committed
digging
##´
jai
internationals
개방성
housing
끈
growling
declan
옥수수
시티즌디움
operating
loomed
가게
origin
unusual
sentiments
군인
현대적
heart
cheer
curl
geology
sheer
fairfield
##iers
##kai
maccabi
wikipedia
consideration
superfamily
mala
panted
agrees
잠재우
scots
##eron
##kus
##fy
hurdles
중앙역
자춘
슬라브
considered
federal
후자
춤추
fall
조서
남침
##inate
조기
catcher
enhancing
soluble
incredibly
##ɾ
donated
correction
overboard
thoroughly
chattanooga
빈곤층
대치
llc
inception
leagues
무교회
잎따기가위
still
1688
##tula
shatter
알무카바르
[unused224]
mosquito
appealed
cigar
볼츠
accumulation
triumph
doubt
[unused59]
phelps
tang
rodgers
##coe
[unused675]
lean
penguins
##ψ
라이스
transitions
sami
집단적
exaggerated
latitude
택시
[unused331]
renewed
rescues
inwardly
생산지
etymology
제목
mouth
~
paces
유사
marilyn
태평
orthodox
##lib
현황
##icide
불고기
keystone
##yla
헌액
교관
흥미
shuddering
nearby
reformation
##fires
planting
한총련
bey
##genase
exposure
ceilings
째
너무나
세로프
invite
등극
derive
차이점
warriors
truman
clouded
##xt
holstein
연마
tribes
결성
닐
요한
bangkok
##ones
ㄴ데
친밀감
drills
상
##¾
불구속
slayer
accomplishment
stall
robert
이룩하
기계류
golfer
##ful
lex
끌어당기
kenny
직후
remnant
네티즌
fined
##uddin
##hopper
포인팅
elsewhere
위원장
dissolve
faster
dentistry
collectively
constructed
learn
##ates
della
##loe
rot
judd
terminate
##pour
명단
수부
hardy
magnus
西
수출국
##sant
[unused649]
##train
##น
##स
compression
87
barred
##ி
pedro
determination
##athic
계좌
실생활
utrecht
##ography
##ten
ranged
음정
##card
mobility
##kata
1234
가회시
55
관여
opposed
woven
이해
lilith
forestry
260
glendale
[unused926]
ɯ
prevalence
¦
thumb
밴
period
몰도바
insist
##yas
gogh
##rant
ida
womb
trauma
##rooms
통신망
##orus
영예
tops
##lithic
##hler
entrances
closeness
GNU
spontaneous
hannibal
[unused219]
viceroy
tentatively
##ᴺ
hays
나타나
shudder
rebuild
pena
պ
piece
도급
[unused566]
optimistic
신임
[unused149]
기브스
bypassed
solely
spa
hotter
재선
withdrawn
도서관
believing
##lass
townships
##tius
쿼크
regulars
우수자
외치
이성질체
시연
transformed
corrected
nielsen
meritorious
severity
gujarat
시포릴리
extract
flowed
competes
##proof
아비주
freeing
소환
##stra
디지털
nebraska
usual
principles
moments
##dier
설치
096
apocalyptic
sebastien
smallest
oral
palestinians
cinemas
westbound
bolt
히카루
etudes
[unused578]
峴
ℓ
확정
betsy
ᵘ
jj
성분
[unused549]
presidential
ladder
##ม
curb
begs
fractures
sultanate
loves
specialty
history
##lved
물가
태백
무릅쓰
guise
hum
214
prepare
위안
baptism
050
두자춘전
바
express
bank
knife
copied
최소한
동원
forewings
다게스탄
양학통
##ginal
container
##ர
issues
분할
전남
##dorf
goofy
의원직
##∂
##chule
눈
mara
##clave
총칭
분당선
##ovic
residents
send
오렌지
북코카서스계
##8
posture
hilary
routinely
julio
blu
대중적
uniform
모뎀
vickers
musicals
austrians
ellen
점하
azores
ferries
田百間
소문
##yck
spacecraft
##כ
##stown
regents
[unused277]
국립중앙도서관
pasta
postwar
louise
##u
생략
읍
albanian
[CLS]
enclosed
##tow
kitty
sarcastic
장바티스트
##mei
대관령
역학적
ᄇ
congregations
spelled
##ী
씩
soldier
silent
[...]
